node {
  name: "lstm_1_input"
  op: "Placeholder"
  attr {
    key: "dtype"
    value {
      type: DT_FLOAT
    }
  }
  attr {
    key: "shape"
    value {
      shape {
        dim {
          size: -1
        }
        dim {
          size: 100
        }
        dim {
          size: 9
        }
      }
    }
  }
}
node {
  name: "lstm_1/random_uniform/shape"
  op: "Const"
  attr {
    key: "dtype"
    value {
      type: DT_INT32
    }
  }
  attr {
    key: "value"
    value {
      tensor {
        dtype: DT_INT32
        tensor_shape {
          dim {
            size: 2
          }
        }
        tensor_content: "\t\000\000\000\200\000\000\000"
      }
    }
  }
}
node {
  name: "lstm_1/random_uniform/min"
  op: "Const"
  attr {
    key: "dtype"
    value {
      type: DT_FLOAT
    }
  }
  attr {
    key: "value"
    value {
      tensor {
        dtype: DT_FLOAT
        tensor_shape {
        }
        float_val: -0.20927404
      }
    }
  }
}
node {
  name: "lstm_1/random_uniform/max"
  op: "Const"
  attr {
    key: "dtype"
    value {
      type: DT_FLOAT
    }
  }
  attr {
    key: "value"
    value {
      tensor {
        dtype: DT_FLOAT
        tensor_shape {
        }
        float_val: 0.20927404
      }
    }
  }
}
node {
  name: "lstm_1/random_uniform/RandomUniform"
  op: "RandomUniform"
  input: "lstm_1/random_uniform/shape"
  attr {
    key: "T"
    value {
      type: DT_INT32
    }
  }
  attr {
    key: "dtype"
    value {
      type: DT_FLOAT
    }
  }
  attr {
    key: "seed"
    value {
      i: 87654321
    }
  }
  attr {
    key: "seed2"
    value {
      i: 4460258
    }
  }
}
node {
  name: "lstm_1/random_uniform/sub"
  op: "Sub"
  input: "lstm_1/random_uniform/max"
  input: "lstm_1/random_uniform/min"
  attr {
    key: "T"
    value {
      type: DT_FLOAT
    }
  }
}
node {
  name: "lstm_1/random_uniform/mul"
  op: "Mul"
  input: "lstm_1/random_uniform/RandomUniform"
  input: "lstm_1/random_uniform/sub"
  attr {
    key: "T"
    value {
      type: DT_FLOAT
    }
  }
}
node {
  name: "lstm_1/random_uniform"
  op: "Add"
  input: "lstm_1/random_uniform/mul"
  input: "lstm_1/random_uniform/min"
  attr {
    key: "T"
    value {
      type: DT_FLOAT
    }
  }
}
node {
  name: "lstm_1/kernel"
  op: "VariableV2"
  attr {
    key: "container"
    value {
      s: ""
    }
  }
  attr {
    key: "dtype"
    value {
      type: DT_FLOAT
    }
  }
  attr {
    key: "shape"
    value {
      shape {
        dim {
          size: 9
        }
        dim {
          size: 128
        }
      }
    }
  }
  attr {
    key: "shared_name"
    value {
      s: ""
    }
  }
}
node {
  name: "lstm_1/kernel/Assign"
  op: "Assign"
  input: "lstm_1/kernel"
  input: "lstm_1/random_uniform"
  attr {
    key: "T"
    value {
      type: DT_FLOAT
    }
  }
  attr {
    key: "_class"
    value {
      list {
        s: "loc:@lstm_1/kernel"
      }
    }
  }
  attr {
    key: "use_locking"
    value {
      b: true
    }
  }
  attr {
    key: "validate_shape"
    value {
      b: true
    }
  }
}
node {
  name: "lstm_1/kernel/read"
  op: "Identity"
  input: "lstm_1/kernel"
  attr {
    key: "T"
    value {
      type: DT_FLOAT
    }
  }
  attr {
    key: "_class"
    value {
      list {
        s: "loc:@lstm_1/kernel"
      }
    }
  }
}
node {
  name: "lstm_1/weight_regularizer/Square"
  op: "Square"
  input: "lstm_1/kernel/read"
  attr {
    key: "T"
    value {
      type: DT_FLOAT
    }
  }
}
node {
  name: "lstm_1/weight_regularizer/mul/x"
  op: "Const"
  attr {
    key: "dtype"
    value {
      type: DT_FLOAT
    }
  }
  attr {
    key: "value"
    value {
      tensor {
        dtype: DT_FLOAT
        tensor_shape {
        }
        float_val: 1e-06
      }
    }
  }
}
node {
  name: "lstm_1/weight_regularizer/mul"
  op: "Mul"
  input: "lstm_1/weight_regularizer/mul/x"
  input: "lstm_1/weight_regularizer/Square"
  attr {
    key: "T"
    value {
      type: DT_FLOAT
    }
  }
}
node {
  name: "lstm_1/weight_regularizer/Const"
  op: "Const"
  attr {
    key: "dtype"
    value {
      type: DT_INT32
    }
  }
  attr {
    key: "value"
    value {
      tensor {
        dtype: DT_INT32
        tensor_shape {
          dim {
            size: 2
          }
        }
        tensor_content: "\000\000\000\000\001\000\000\000"
      }
    }
  }
}
node {
  name: "lstm_1/weight_regularizer/Sum"
  op: "Sum"
  input: "lstm_1/weight_regularizer/mul"
  input: "lstm_1/weight_regularizer/Const"
  attr {
    key: "T"
    value {
      type: DT_FLOAT
    }
  }
  attr {
    key: "Tidx"
    value {
      type: DT_INT32
    }
  }
  attr {
    key: "keep_dims"
    value {
      b: false
    }
  }
}
node {
  name: "lstm_1/weight_regularizer/add/x"
  op: "Const"
  attr {
    key: "dtype"
    value {
      type: DT_FLOAT
    }
  }
  attr {
    key: "value"
    value {
      tensor {
        dtype: DT_FLOAT
        tensor_shape {
        }
        float_val: 0.0
      }
    }
  }
}
node {
  name: "lstm_1/weight_regularizer/add"
  op: "Add"
  input: "lstm_1/weight_regularizer/add/x"
  input: "lstm_1/weight_regularizer/Sum"
  attr {
    key: "T"
    value {
      type: DT_FLOAT
    }
  }
}
node {
  name: "lstm_1/recurrent_kernel/initial_value"
  op: "Const"
  attr {
    key: "dtype"
    value {
      type: DT_FLOAT
    }
  }
  attr {
    key: "value"
    value {
      tensor {
        dtype: DT_FLOAT
        tensor_shape {
          dim {
            size: 32
          }
          dim {
            size: 128
          }
        }
        tensor_content: "\223\254\032>\032\305q=\\\314i=\026\007\255\275^\214\303<;^:\275\222\253-=T\312r\275\355\257\223\275\235\363O=d\207\330\275 7\357\275\034\022\315\275\320E\325\274U\214\336<p\333\246\275E\302q=\037\346\264=\200\274\325<\315\305\217=\037\242/>\345c\304=\202\276\026\275hh0>\346\014\027\275 >z=s\235\251\275\333\005\025>\274\317\203=\226R\004>ID\337<\367\365+\276\333\315!<Z\017\250\273\251\370\203=\320DG\275\206c\354=#\220\365=8\372:\276\273\270\222\275ie7=\363\203\270\275\375\332\262<\373\330\\=\235W\220=rN\005\276\267\325\023\274\377\236\316<6\264+\274&\340f=$#\224=L\006\353\274\256\326V>\032\254-\274\251\276\361=<\276\3249\240\347\327\275*\027\201\2744\013\355\275\363\207\200=\254F==(\363{\2741R7\275\203\341]\275{\000-\273\320.\2145\250\220\352=E\303^\276\'Go<\013\231\223;G\023[\276;\353\202=%G`=9\315Q>^K\306\275o-\247\275\367\021\300<J\375\322\274Z\374\333\274\321\221\246=\207\223\005>uV\215\274\021.\341\274.Q\250\274\010\222\301\274\337D*\276\t\234 \276\026\237\007\276U\351\202\274a\353I=\200\241U=\214a\206\274T\037\016=_\212<>Qu\027=2\2651\276\332E\222=\304^{=\276\232\207=R\360\017>\254\243%=\352\216\343<j\265\230=i\030\245\2758=^=\206\215\320=.\333\236<\014W\232=\245\260^=\306\214\016>I\372e<\003\375\t\275]A\307=^\250.=\256{\310\275$\252\242=\244\334\002=l1\276=\016\216\001\276\235/\266<\244\267\024\274X\267\340\275\244\261\303<d\235\252=N\376\305=L\277\005\275a\221\261=p\005\201<\335&3\274<\207\365\274\301\271N\274\017\317x\275+*\213\275\351\312\036\275\020:\004<)B<\2755\211\314<\376v)=\014\264g\274q\016\'=7\272?=\205)\277=\343\354\303\275Q\022\325=\3760\305\275\001y\235\275,\262\257\275;\326{\275\"Wd\274\237*\264=]\341\026\272\301Y\024\274\023C\345<\336Da\275\001B\245\275\032(\227\275\'&\013<SH]\274\26245\276\240\256\002\276\361x\021\276\270\222\240\273.\326\037\276\272u\200=[\207\264\275\362\301~\274\231\036\r=P\227Y\276\033\376\376\275\334\236O>a\025\245=\347r\245\275W1\017=\3532\024\275\346\227\214\275\337z\306\273\226\271\032\276O\0333>z\025\365\275sY\215=\274\247\373=\"\326\320\275x\037E>\332\274\351=\206\350\256<o\301^\275w\314Z\2759\237\217\275\027\320[\275\217/\261=&\2157\275T\316\364\273f\023\336\274xx\000\276\362\303\331<\213{\'\275\237[\207=q\035\252=<\363\323\275\375\235\202=\"5\005=\366\361X\275i\n\252=\036\274\"\275\026\370A\275\275&\036\275G\220\234\275\266\315H\275\014\243\370\275\221\036$>\2368\206<\032\177/>3QW\273\261d\r\276\347@,\274y7\331\274\2136\232;?ft=\304\005\010>_\242\341\272\021\206\234\275\320\357\211;mNf=_\r\030\276\346[\200\2766c\035\276\314\304\017\276\262\275L\275\301\016\004>\030\210\207\274\311TS=nN?<\3116^<\222Z\376\275\323+?<\n\234\241<O\350\227=\360\250\243==6\035\276\240\023\264=\\\362)\275A\300\224\275\240\373\202<\\\216\333\275o\207p\275u\024\223\275o\340C\275#\353\r>@o#<\371\332\003>\213b\317=\270\323\303=@\204\215\275v\010 \275\t\000\256=\323Q\214=*\350\330\275Y\013~\275\326\005\344<\317\241\323\275\255\205*>\006\255\321=(\256<\274\351J\273\274I*\020=\233o\342\275T@\215\275\321\347\035\275\\\005\025=\245\364\346=>W8=\202U\'\275[!\016\275\201\377N=\347\320\264\275\270\255d;)(\n<\227J\250;\275\005\252\275S\013:\276\260>\226=\250m\300\274JD\315=V\333\267=!\005\255\274\226\375&\272|\325\335=*|{\274l\252\311<\316~\365=\251\357h\275D|\r=^\225A<\377/A=s\341\220\273\207\311 =_\236\027<\303\247\323=\367\013\251\275\232\036y\275{ \273\272\312\225]\276\034{\014>\r\251\326\275s\205C\273\"\004\354=\263\213\345=\354J\333\275D\354\\\275\265\007\200\275\274\344R=\224\213\304\274\256\362\226\275L\035\341\275Y\275M\276d\327N>G\217d;!f+>\323\025q=\204<\270\275\362\237\243=(`}\275\301b\264\275\370\334\022\275\004$\001\276\312oh>\022\010y\273\233&8=\341\304\231\275\350P\352<\026\2539\274C\273\200=G\3402\276\270D\267\275\270\377\317<\212m\247\274\231k\377;\310y\234\274\345\230#\276?\354\225\275\261\220~=\364\016\225\275i\313k=\223\231\306\275e)A\276&X#\276\300D\332=\365\025\364=\035\301\325\274\351\tC\273\353\301W=\317m0\2741\217\257:\266\216\334\275|\220N=-\023\254\275\016\215\306=\312_\252\275\002\265\023=5\036@=@w\346\275z\332\276\274\355\347\213\275\007u\372\275\343\220\255\275\365\257\331\275\227\202\002>\247\351*\275\3309\364=\316\n\030\276\355\233\302={\343\301=q\277\243=\304\343t=\0267\004=I\223B\275\370\313\224=;\r\016<Ya\344=\346]\325\274\360Z\355\274\345C\303=\024]7\275\346\347\336\275\271\354\320:\266\013T\273\257f\005;J\003\362\274\360\254)=\251&e\273&\211\261\275\031\337\352\275\007\257\247\273\224\202\236\2751\013\312\273\020e\225\275\304\344\2348\343&\340\275\211\341\223=\t\305\001>Z\rt<\313d\307;9\265\342\273iJ\r\276\202\334\263\275\345\r\226\275w\361\013\276W\275H<\276OQ=x\007\350\275\023({\275\341T\003=QC0<1S6\274\375\201\323=i\363$\275T\204\365\275S\214\232\275\314\005K\275\016\005\257\275\324\0270\276\242Cz\275\321\002\343\275\373\251\252=S\360\313=\260\227\233\274\255BA;b\323N>\323\364\253=om^>\266\253\221\275~\343K=\347:\241\275\374X\316;\300\024\223\274\201\177B=\300p\334\274\361On\275\024\246\n> S\000=\226b\223<nY[=\2741\361\274\351\221\t\276=\363\001\276\001?\366<v\002h>B\313\333<Q\r\017\276;\364\331=~u\353\274@9\030\276\027\240+=\211\240\324;\242\251\211=\326\377\346;\375\363\245\274r\204\277=\000A\215:\260\034\245\2759\230\233\275\026\351\224=\256<\251\275\312\353\247<\200\361\003\275g]\233\275U\375\217\273-\231\203\274RA\307=\273(\245\275\325\374\257\274e>I\275i\177\260=\006D,\274\2069\t=\'\017\263\275\222uH\275<\260\225=\236\355k=\355Q\311=-\241]\274X\216\213<\245[\035=L\300D\275%\355:\276\250\234\t\275\343\337\024\276K\310\016>T\313\023>qL\226<\270\374\017\276i\240\204;}\301\031\273\370\346\2739\247\343\343=\213\216\323\275[\365$>z&_<\210\276\010>\350\322\305=\330\254\017=\355\257\225\275,Q\242=:\")=\306\003\375=#\374\346<\206\262d>\274Y\207>\006\023\031\275(\236\034\275\271\366\027\276\031\272\300\274\310\352\231\272\330\306]=\207\312>=\365s\001\276Hs\021\276{\021\304\275\341\254@>@X\200=\241\206b<\n\343l=e\307\030\275\321\013\302\275\335^T=\335=~=Y\3252\275F\007\333=\"\251i<\217/\n=\325\226>\275N\014F>c\0079>ui\310\274K*!\275\264\"c\276\033J\002\274=\267\206=?$s<\336&(>-\274\235<\325t\022=\270a\212\274og\376=cN\345=$C[>\315,\251<\366K%\276\266c\361\275\322\023\326<\214\027\021\274\t\257\"\275d)\241<\375\310\005;,\212T\275\372>\021>\035y\315;\204\343\261\275}\272\237=#\330\205=\274\264%=\344\202f=!\236\247\274\267wX=\372n\366=\255\247\271<\3005\316;\036\213C\275\006n\225\275\345\021~=e\235\016\276\275\335\361\275Pb\030\275y\370~\275\331\016\013>\302\226f=\367\264\030\273J\325\234:\'\222\213;\212u\004<\316Cf\274\332\364\367=\237@\235=\374\177*=q\354P\275\276h\005>\"\001/=v\030\250=\211\231A=\206\274\003\276\377K\320<\366\227\251\275\306n\253\274n-_<\304{\357=\250\004\003\276\3022\016>\315\331\247=-\367\001>G#\n\275/#\324=\253\303\037\274\273\323\313\275#\037\235\275\022}\373=\234\260\245\275\033\324\";\230(0>\223\337\000\276\373i\016>^{\212\275Yg\213<\305\356_\274\213\3349\275_12\275[\201T=2\003\222=\305\330O\275#\310\010=\032\333\010\275\250\340?\275\312+\243<\252\235\017\276\337\255\020;\251\304\034\275B\020\374<\332u\330\274>h\r=\007B\003=\0142\336=z\205\212=\277\305\267=\255$\004=\244\241\374=$\302(=j}I\275\005w\243\275!=T\276\355/@>\016\002\034>\n\244\353=\254Q\331;\277\017\241\273UV\003=|\253j\274f\201s=zW<=\344\037(\275\226\211\316=\207g\241=\004^k=\340\226\003\276\035\271\371=\217\330\002>=\205\355=\201q\223=(C\351\275f\017\017>\255b\034\276\214F#\275\276\373\243=\344{\3019\201v\236\275!\013K\276;}\211\275\252H\322<\353Z\021\276>\342\304\274\323y-\275\354\246Z>\220>\351\275\234\r\332\275D\277\001\276\265)\214;\204\240\\=\320\224\222\2756\376\220=\033\317D<\014\244\001<7>\247=Z\365\302=\3423\273=\261|\001>4\361v\275\nG\362\272\257p\303<\023U\222=\237n\263=\027w\t>\257\240\235\275\270#\357\274_\262\205=\336\371\352<\004R\036>\013\241B=\264\303j\2753&\224\275)L\272=zF1=\254\257{\273\023[\241\275\262H\316=\345\200\255\275\314\307\365<\203\277\032\273_\226*>k\3775\276T\360\004\275\250\365O\276\216\372\304=\210\014m=\354rk\273;\372\255=#rl\275t\240\035=\323a\306=AN\227\275j\234\265<\032C\257<\316p$\276f{1\274\3473\233=\234AB>\251J\305<\246\304\346\275\260u\363\275\235$F\275F\261j=QN\030\274f\355+=5R\'=\270\006\005<\364\022e\275\232\254\306=\r\347\275\274\231\265\337<F\231Y<\250\334\260:\330\311\257=\026\001\024=\037t\254\2756\260\362=\310\264\254=\'z%>\270\031u\275\316\240\335=\021\200\307\274\023\242\340\275\270\313\314=\204\231\332=\tX\'=\326>@=\311\214\345\274\\\n\225=Q1\251\274_\243\264\275N\221\350\275\303$\005\275\363\037\275=\226\027\263=3\333\360=?v\331\275\000p\036\276\363Rs\275\'\313D=\357\256\001=|\267\276\275eT\365\275\025G\204<\374\335\017\276/\354\331<\337Y\360\275-\031\236\275|\037\270=B\353\241\275r\204\230\275\264{\265=\232\270\366\274\210a\233\275c\334\217=i|\240\274\271\206+<\274\0137\276$\376\010=Sw\022=\260Z\227=\345\326\213\275\030\321\257\274\224\215\204={\261\300\274\300\265\277<\240\217\347=\263\035\204=\334\000R>>\364\342\274o2#\276+\260\266\273\030\2054\274\213b\260=\366\360\\\2757@\235=X@G<q\341/<\217)\346\274\350\373\177\274/^\000\276\213H\264\275GK\244\275\366\247\021=K\017(\276K\364\020\276\220\300\245=\216\372\226=\033\177\307\274\'\235\016\276\030\340\'<\205\272\327\274\333bK\274|T0\276\375\307e\274\302~\251\275\021\377\007\274=A:=\241\201\217\275\253\356\343\275\376\177\017=Z\n\265\275\235\252\365<\321%\224\274\244\353=>\227\373*\275\376\006\013=\315\246?=\2042\023>\360\353\201=;\362-=\206\315\363\275Q\222\250=K\250\017\276\017\336/\2767\251q<\305ZV:\025wo\275\313_\002\276\343\004\255\275\330\261\r\275r`\003\276\253}\310=\325\345l=\360OH=fD\243\275_\332\266\274\213\256\321<$\353\252\274v.\034>\305\'\332=\300K\236=\222u\010>\201j\024\276\013\221>:l\345\221=\026\027\365=|\253_\275\006k\256=+\373\026>\311\034\010\276\010r8\275\242L\335<\222\241\017\276\352\321U\274\207\000\335=\371\274f;\035\027p\275\217}\'\27685\212=E\210\230\275_\026\253\275\357\"2=\223\014W\275\311\227^\275\251M\007\276\000\031[<P\324u=\260\322\r\276\356\353\307<\'\020\200=r\364\232<~\250Z=\2415\324=\254F\017=\032\032\326\275<\250\365;\273cr\276\213\226\351=2\010!=\220\334\236\275\3118\264<D\006%\275\026\351\260=9\242=>\244\005\376\275\313-L\274\320\311\010\276\302#\013>\266\004\020>\313qm=\014\003\256\275>[\3039E\336\216\275)\304$\276\350\272h=\'\367\244\274\031\330\242=\233\036\320=W\242\231\275f\354\215\274f4\303=\236\215r\275\230u\231<p\356\334=\211!\274\275\307@c\275z\333\007\276\351\363\255=\301\361\033>R\345\020\276\325\363\206=\264l\322<\3548\221=;N\"=\347\007\330\274\331O\314=\rH\\\275J~\372<\3303\327<\r2\226=\307|\\=O\277\031>\344\251\323<_QE\275\216\230\345=\377\275\033=J\237\210=Q\023\005\275\312\177\003=H\235\316\274\215\352\210\275\353\242m<\374\221\254=c\236?>`\236\354\274`ax\2756!\226=tK3>\344\312\020=\271\325\377\2753^\370\275\347T+>\267B\312=W\255\017\275/A\301=\365\267\005>\235V\020>`d#=\0172\370\274\321\341\253\2739\'\312\274\333\024\204=KqO\275\355)+\275r\031+\276\375\337\033>\230\340\315;\251/8\275\320!\006\2765|\016>\244u\001\276\361F\236\275\305\210\031\276\341\026 =\204\025i=\377c6=D\036o\274\363\r\023\276\t\264\335\275\364\034W\275\275|\304=Wb\317={\262\207\275\245Vx=\227\254|\275j\342\006<\226g \276\270\211\340\275\006Y\377=yj\030=\243c\002>oK\307=R\010\250=9Y\251=\036(-=p\362\020\272gG+>\346\367\335\275#\355\213\275\205zs\274$/\014\275m\201 \275\244\222Z\275\266\244[\273\337\326\360\275]@\026=\022>\226\274\274\036\272\275%\232\211=\'#\311\275\311\335\203\275\360\227\225\274\216\345\375:e\264\000;\325\333\310\275\255\024\320\275{\231\246<\260\261\331<\372m\222\275\245\262\356\273\337\035\325=\"\020\224\275\001.\331=\337,\331\275\363\240\376\274\300\204\307\2747t,=:eS=\n\275<\276\2267\274\275If\356=fhy\275MW\366<\364\374\260\275\346\210U=\306\311\027>XW\300=\330>\032=$h_\275`\336\n\276:\236P\276\235\325\236\275C\003[\275\211|%=\372\317v\275|\021\201=\027\205\335=\355\006\234=\214a\204<\333{\213\275\3327\215\275\337\363\014\275\221:\365<\314p<=\036r8\275\216`\334\275\t\017{\275\353\353\321=\306\271\374=\231\217\216\2755W\276\275\224[\233\275&X\376<W\033\246=\350\204s=\021\274\'\274\365\221T\276\350\320\300\275\212\203#\275;C}\275\316\234w=]\031\230\276]p(\275J\037H=\0004\021>U\320\240\275k\325\212\275\301\242\362\275g\221\344\275\342\177\245\275\023\220\271\274\276z\234=R/\017>\356\220\016\274\337\005\024\276\341\312-\275#\236\036\276\211\353\n\276A\273-\274\024v\271\274$\340\t=?\023d=tS\306=m\263\325\275<Z\321=\243\006\024\274\344\220\231=\316}\021\274K2\003\276u\260y<K\361\001\276-`#=\2302)\275\2477\240<uh\331\275.\344\026\275b\372\262\275`\377\266=\212\323B=\335U\324\274\016x\346;s\021\225\275\251\347\250\273\337h\236<\255u\260\275\343\236a=^v\207={\243b\275\t\245+;\354_O=u\204\350\274}\016\031\276vH\017\276\300.\364\274T\3700\275\324\257\\\275\245u\322\274H\333J\275mU\211\270H\201\021>\330\017|\276\351Jz\275\026\227\022\275$t\006\276@\223\032\275[\331\357=A^!<M\201\233\275\033N\222=g\021\323\275\222\317h\275\n`R\274\234C\177\275\372T\354\271\247\233\310<\346z\014>\352\332\357\275\342\376*=\373&\225\275\000%\233=\022JW\275;\236[<\263\'t\275\237EJ=\273J*>|\"\323\272\217ab\2758?{=M\344\377<TM\342\274\356_\273\275\355\024Y=Z\261\304\275\257X\276=\305\005\210=(*q=\034:&\276D\354u=\307cH\274m\020\355<R@\306=>\220D=\301\255\343<o\263\031\275\007J\337\275\211\277\307\274\340\027\205=r\347\024\275I\005\003\2767k@>S\2004;\366%6>KR\034>\023M\035\276\\}\311<\335\372\340\275\340\311\223=Pj\301<\3312\016=f^(>\351\010g\275c-\t\276,L\263<Q\024\220\275\246S\005=\000\275\206> \366T=8\333\211\275t\327a=\343Q\221=Q\'\373=\036\n\240=\376\002\006=j\3427<\177\307\237=\374M\257=\230\374W\276\\\207\036\276\223\232\322\272\035\232@>\316\352\267<v\273\271=FS\272=e9\345\274`Y\272=\364[\211=8\250\\\275\267Z\007\275\263\347\324\273K\234\030=g\374\247=\3718\300=\237N\024\275\267\367\260;\242\344m\275\317l\351\274\026\301\211:{\262\001\276\'2\337=\3073\016=\031\002\351\275\241\260\216<(.\376\275Y1\244=\266\023\226\273}\'$=\005z\025>\020`p==\372\033\275\251\351\354<\203\022Y\275`\221\";~\3730=\235\004+>V\000\216=\265S\302<\261\240\362\274\304\301\025>\016\230\n\276Q\323\207\274\357\254+\2750\n\252\275\311g?\275\375\003\222=n\210J\2756\342\013=\327\310$>\215\013\277\274[\227\000\275\334b\t>{\314\214=\324\014a<|\255\004>l\312\265<L\313\030\272\365Y\342\275\0251\t=\302\304\201\275Wx\277\271\235$\014\276\301M(\276\336\035\376\275\376\225\212=\212\037\000=\233\3471=-u\333\275\250\272\017\275\337\217Q\274hV\007\276/$\'=\307\241\322\275H\365\235<\333\357\312\275\213$\274\275Kl\016<7\013\256\271\027\222\242=\344\254\342\275\344I~\275T\322\272\275\341\315t\273\252\257W=r\272\234=\007\233\305=B\002\236\275WN\215\275l\212\035\276\222\r\226;\177\017q;\001\333\270\275\322\032\261\274\321\357\267\274*\354\224<\202AJ\275\2137\"\274[a\203=1^O\275K\322E\276\032\267\256=\233\274G=\321D\306\275R\260\"\276~@\245\274_\310\255=\364\357D<\247-\212<\0020P\276{\200\303\275\016Pm;\376(\271\274\tu\246<\31078\276\010\272!\276\300\326\213<\203{i\271\027\253!>\224z\374:\334\325Y>e*\347=!\222\265\274\263~ \276EU\363:\374\322\014>\256\266W=\226t\025>O\207X\275\365\327\300\274\037\014q<T\351\271\275\371;\026\276>5\337\275w\244\322<[\270\000\276Px\245=\241!v\274\317)\300=\211\240\326\274=\262k=\301gJ\275\345\244\272<z\333#\275\271\010\354\275G\202\201; \251\032\275:H\010\275A\262\223\274\336J\373=\204\370\n\275\206\3252;\2265\317\275\323\3571=H\232\315=\305\314\357<w\033\327<\323\365\364\274\342K\321<\351^\024\276y\216\326<\222G\230={\203\274=\313\360\302\274\271\237\'<\216\336\247=]J\'\274\201\331Z\274\207Y\223\274\033\302(>\235\307\031\276oe\303\275\223}\216=/i0\274M\353\223\275=^\243\275\025\271\">\356\334\021=2y\001\275k*\027>9\255$>p(\333\275\250\232j\272P\340\332\274\246\031\237=\312\372\360\275@S\217=\213\255\005\276{\215\200=\264\315\001>!\022\340\275x\352\242\275\t\"v\275\036c\251\275\200gY>\307\257\";B\026\317=\020J\224\274\214\351\003\276\ta\003\276\006\206\252\2741\234\026>\307N\236=Xn\004\275\363\364\322=\243\302\223<\264\353\227;Y\346\326\275OCG=\267\230`=\304\031\001\275\032\002\254\273\226.\252\275\240\277\310<z\306\007\276\245^\257\275\200\310\256=\327\335\370<\211h\322\274/\014\350=\351c\307=\317\331\353\275\022\036\037\276\252\245\332=\320K\020=q\001T\275\277@1=\236\323W>\031X3\275\30510\276\364\365\345=\211\361\016\275\235\3252=\243\344\346<\360\005\000>\213\250\317\275:t\276\2740E\030\274\355\225\030<\241\205\216\275m\327\351;q\255\261\273|Wt\275O\035\261\275\017\274\207\273\352\031\252=uD\250\275\344\002\001>\2417\252\275=\356\205\275Y\035\341<\n.\354\274\355\315\221=qH\001>\036(\273\2758t\364\273\036\242\001\275\257\025\251<\210\016\222\274\177\352\374<\"{\331=\214E\253\275\313I(\276\306P)\276\004;\341=\026\246\004\276\227\207\t\275\267\245U\275 \210[\276a\031\262\275kN\r\275\312g\206=g*c\273.\006\034=\206\201:\274\277\235R=\"=a\275[\307\273\275\031\322F=\231\022\322=D\337\311<\007X\022\275h\367\235==\006\022\276_b\n\276\370\375\001>j\364\210\274\321\327&\275\003(\220=\024;\337\273F\277\006>K\346f=E\250\205=vO\312\275E\353\343\274\332%\024\276F\202\362=He\303\275\200)\252\275\374\002\353=\212(U=\026C\360\275\222tv\276\r\311L\275\271M.=\234\213\000=\211\034&=\230\254\017>\216Y\225<KP?;\276\350w\275)\226\365=L\177\320\275/\021\006\276!\247\">\321\020h\274\343=H\275\373\021?\274i\376z\275\037\037v\274\321\233\371\273\356\3461>O\206\232<\tS\366\275\006\356\262\272\022\026L\275\377<\212\275\001\337\262\270L\230\303=\357\363\016>\277\362\004>\r~\365\275\222\335G<z\245Y\275\237;\216<i\277b\275\301\020b\276~\025\t\276z\024}=\270<D=\220p \274\216u@\276\244\345\177=\001#\374\275&\246\022\276\025\022\033\275[\013\257\273\014\2639>\030z\201\273q\351\236\272D\225\203\275Vo\031\274\212\353U\273\245Cu\275b(\244\275L\374W=\"\202\240\275\360\235\236<\271\330\340\275\313\272*\276J1\030=\2522H\275\337\323\256<\014\356\343<\303;\315\274s\330\360\273\000\211\216\2757r\316=\003\217\375<\276\3702\275M\361@=;q:=\271\260,>\223l:>\037\232?=\377\0260\275\'sZ=\333\3122=\243C\301\275\255aa\276\306\265\016\276\300\300J\275\247\267\261\275\355\302\345\2750\033K\273\343q\365\274R{\215\275)\260\303\275\373\213\306=\333}f\275\220\216\242=\3703\023\275\277\353$=\333\014.\275\010\372\340\2756\236|\274\212\275\032\276|5r:\202\211\367\273m43\275Z4(=c\245\237<6\253\014>\241\354`\275\335\204\t>\007+\004\274\013\254\360\274 \356\002\275\214\334E=h\315\035\276\033\t\007\2767\372$>\364\314\366<;\267I>o\311\323=\304\207\023=\177\311H\275z\024\005\276b\356Y\275D4\027=\357\225\227=\32189<\002\325=\275\272\3031\2754\221\025>>a\227<\236\031\275\275\025\375\373\275e&\241<C\216\314=R\261\265=<\226\025=\353\332(\276u\266\034;\277\343\260=\276\326\211=`?];^_u\275\307\306\315=!W\335\275\244\245H=\307!\316=\017\362 \275\327\275\213<\251j\264=Z\002\311\275\343\261\003<~n*>\237QE\275R,\203=\326\001><y2\255\275\014\246\222=o\353\233\275\270\302\203<B\200\000<z\214\010\275?C#=\241\330\234<\027g\034=(A\302<=\350\034\276\035:\330\273\360\276\242<#\224\220>m\006\003\275&ym=\362<\247\275\252\272\266\275CIR<\025\002\261<6\3711\276G\223\022\276\364\t\035\275\r\220\217\273\350$\004\272\321\273,\275\326{\004<\316\246c=\325\227\226=\024\033G\276g\030\300=\262\000#=s\266P\275\272\373\225\274\251\355\200\2742\010\374\275\214)\200;k\254R\274\253\312\307\275\256Mk=\3300\304\275#\\\242\274s\370\274<u\321D<y\177\327\274M-#=\025\216\231\274\324\267\331\2756\355L\275\222\206\332\274\262\332\330\274\316\214\210\275\'\355\332<\031\216\276\275h\002\n>Ms\024\276\324y\244\274\344;\311=\221J\206\275D\270k=8\3646=\te\364=\376v,\276\306\022\303=\225,\000\276_g\320=7\007\204=\177_\375<\253\275\210\274\310\226\303\275\032\001\227=\2407\013>G\365\233\275)\277[\275\224\035\371=\355\313\273=\203\251\314\275n\234\252;2\222[=\342\025\246=\315l\206\275\240\371\231\275\300J\034\276\036r0\276\350\311\275\275\256\003?\2757lH\274@\020\206\275\221\347%\276f\327\310\274\361\244\236\275\304Y\204\274t\300\310;\353\316\233<\215tX=`\\\016\275\037yQ=\002m\264;:3\372<\201\373\220\275\340\303\375\275\014p\212\275k\320$=\332\035\243<\240\026\267\273\200\350\276<`\267\001\274v\253\350=D\356\373<+\022H>\267b\223\274A\027\345\275\330\013\212\275\270\363p>\352\345\307\275\237\242E;\023E\363\275\372{L\276p\377\247\273-Z\302\274\200\333\316<\253\321\215=6\235\306\275\t}\272\272\201\263\020>\323\274y<\300\323\210>2\271\344<\004W\236\275Fo{\273\2773I>\310J\356=\242V\005>\371^!\275l?N=r\271\242\275\345\230\014\275$\317\007\275Zq\016\275-n\031\275\trc\276\202\017\341=^8\002=N^\360<%\351\037>\314\337\022\275\315<\341\273\017\017\030\276\004\034\257;\033\0029\275\310X\210=w\361N>\270\273\"\274\326\353\270\274\004\246v=\216]\304=x6\276=\316b\"=\255\027\300\274\371%\\\274[\337\023<_9c\272\261\023\333\275\211\355 \275\361,\371\275\262}\310\275#\205%;\363\325\362\275\0177\307\274\317\326G\276\023]\2668\231q_=\257\236\210\275\307\351$\275\315\0140>Xw$=Z\016s\275\036\350\355=\235[]=jN\327<K\202\244\275A\201o=R\302\204\275\342\020\342\275\307\365\230=\0228\232;\231\030\307=3\266\375;9\310X\274A\246\375=;\252\333<[\267\337=\214\267\320<\030\365n=\320\334\300\275.c|<T\367\366\275r\322\317<-,\360\275H7\250=\035\225\002=\372\320 \274\310:\251=\327\036>>\323\306>==|\204;s\362a=\2445\327\275\366\204\252\274\2031P>\037{\007>\247\'\200<\031a\340\275t^A\273#B!>]F\275=q\332\373<H\257\277\275\362_M\2740\312\031={\367(\276\026\031\350<\016\311?\276\307\352\317=.\201\240\274\203\255\257\275\013\354\366=6\254\031\274\322\350\210<\031\224,=\211\375!=\320\2555\275W\351;;\3733s\274\267\324|<aG\320=\\h\265=\323\305\n\275\007Y\212\274\261\317|\275\220n\211\275:uM;\354\365;>6\273^=\272\213\014<\273\n\273=SbZ\276\214m`\274s\254\315=ck|\275\361.\230=\0248\217=\376\231\351=\007\246\256\275\203S\200=Z\327\356=\205*\236\275i?\"\276\320/A\275\242\300R=n\326\221\275\302\264E\275/\364\241;\037\207\243=\271\256i=n\200^=\331w\215:\265^\025>\006\242:=$\0218=\010vq=\257\'|\274\203\332\314\275\3341-;h\235~\275<\024\004>g\031f=\271t4=-68\275zB/=\220\ng=\332\023\r\274\2043\221\274w\301\020\275\'\334\335\272D\372`<\253\000\022=8\256\000\276y\233\212=)\326\000=\003\204!\275\213\376\017=\252\242\242=\3570\022>r\005\343<}a\261=\222N<=F\255[=\325B\305\275\362}h\276G;\232\273\365\002\014\275i\013\027=\2632\265=^1)\276\177\'\005=\033y\266<\372\234\316=l\350h\274Q^\373\275\254\320\240;\366>\226\270:W\344:\376\267\272\275a\306\215\275\323\367\003\276\331S==44e=)U\223=\n\257\255\275\267\335E\276\006\326K>\315\203@>\rD\361<W\202.<@\375\247\275\002\336\345=\022\271\324=}\251\023\276\027\367\004>\016u\373\274SL\231\274\251\362\241=\276\322\032=@.\345=\334\022\237<\002\331M\275\357\374Z=\361\201\235=u\211P=\332\206\265<\353Z\374;\202w\224=i\224\356=\005\300O\275bRG<c\204\031<\230\324\021\276\261\267~=Mm\014=!\023\322=\000\245D=F\337\327=\211\276\270<\025\261\261=\301\321\273\275\252\332\037\276fA5>\031\230m=\226_P=C\303\r\275\250V\376\275\331!\326=\341@/=\211\231R>\'\335\322<\242\006\205\275\010K\233\275?\036\257=bB\212\275-+\030>\233\373\272\275Ox\212=\033\235V=\304p1\276\034\343\030\276\361t6<s\246\217\275;\\\024>\255,1\276q|\234=\024\346\262\275\324,\215\275\265\301\260\275\235\314\200\275\345\013%=\\d\273=\003.\374<\325\255\t=\276\346\022\275\324\017\332=Vr\035>\355M\267\275\n\303\263=Q\014\222=\200\264\221=\340\325C=\322\243\263=\024\236\230\275\341\337S<}A\336;\n\004\240\274Z\355\201=\253\274u>\276[\321<X5\t\276\342(\202=\005r\002\275*\021q=\335\247\272\275h\231s=k\006\374\274v\363\262=\225\363\353\275F\021\375\273\037\267\004\2750\022\035\275\253\314Y>\234f\272=\010\014\376=E7\344;\033\372\254;F\"\314\275\337\016\004\275\226\2309\276*\025\200\272\025\336\025>q\271\371<\226\336!>\203!\024\276\3619)\275\tu\357\273\374\2337\27538\346\275\374\366r=Yp\007>d\372\316<\230\200\320=&\010\222<\374_\022=\346\0301=\207\210\021<\313(P=\272b\205\275&ek<<\256q\273\225\346\272\275\024\256\330<^\311E<\370\307\340=\213w\365\2759\224o=\016\355\207\275\220d\377\275\337\010\277\275P\254\207=\020\351\205=b\311\207\275{o\205=\036\265+=;\307+<t:\335<\2732}=g*\210<z\2576>b\274\003\275\r\377\264\2755\273s\275kQ\217;<b\220=\204C5\275x\266)=\033\257\000>\225\231K\274gF\342=T=\330\275D\231*=\340Q\005>\355\214\316=s\r\006>\216\204\375\275K\350<\276\177\027\256\272F/\351\270\312K\337\275\216\"\236\275\230\021\201\272&\304\231\275\315f=<1\331<=\360X^=\026\0258=\016\354\323\273\304\374\266;\033\326i>\240\353H=\277;K;S/\211\275\320RB\275\245\023\220\275A\"\333\275\362^\361=\2700\215;\031b>==\275\002=b\353\375\275\275[P>aT\035>DC\022\276\0016}=\336\306\247\275\344a \276\341\355\237\273\030\256b\275\346\252\002=\017O6\276+\276\252=\244\304\023\275M\240\320\275#LH=\360\365\210=\301\273\366\275\002\205 \274\006b\207\275\340\302\010=\034\240\314\274\000\224\244\274c\361\257=V\005\314\275\205\306\202\275\363.v\273~\327\245\275?\234s\275\2354x=\306\345\210\274<\324\263\275fk)\275\213\254\246\275\312<\004=\222\330\233=\n}\325\275$\214\022=u`-\276\363\201\242=\310\032\331=Q\336\366=\310:\205\274\357)y\275\036\202\354<\035\231J\276\264 \005>\274\1778\275\353.\312\275\352;\361<\201\237\352\274\232\025,=&g#>\020\340\370<s\270\223=\303\376\231=\206\2105\275\200?\342\274\261Bu;\353\265:=n\260\t\275\027Q\316=A!\241\275\025\272\331=(\240\227\275\257e9\275e\256\307\275\002!\367\275\215\037D\275\212M\333\275I\361\206\275\r\301\235=K\006!>\356\345\003>f\233\252<\265\004+\275\355\247U=Q;\326<\024[\203\275)8?>H\251\265\275\241\005\322\275\0204\263\275\221+\231\275\221\255\257=\266\243Z;\304=\345\272\031q\306<\367x\241\275d\365\210\275K\216\2378q\010b=\026C\310=h\321\236=z\026\321\275\200=\331=\266\356\036=\307-)<\235\303\353\2755\\\025>N\230\342\275\353\347u>g@M=\363O\002\276\030\321\337=\301\275\277=\276\003\177>\364F\002\274\204a\263\275\224y\017\276\245\246\221=\217h\262\275|\231\210=\367\325/>\177\3601=Mz]=\013\222\234=4\277r\275\374\037\332\275\223\335\260\275\223\r\013\275\310\364\350\275\312\342\234;y\215\331\274\230\214\260\275<s\335\274\312c\242\274\177\232~\275V\227\351<f\342\237=\025d\264=?q\213\275\"\021\327<\251\3607>_\225\354=)\037E\274\350\260\034>u\0174\275S\276\331\275\353\266\002\276\242\303|;\024\262)<\261*@\276\206\222$=%\205.=\010U\335\275/\213\223=f{\003:\232\302\244=\032&v\275\267\030\301\275/\014\254=*\200\013\276\001\000j\2753\030\356<\t\200\001\276\314\274\205\274qe*=sq?\275Tj\255=K\016\317\275\217x\022<\243\353U=P\224\263=\243\213\226=\200\274\264\275\354\031\306\275\363^\262\274\352\244\224<\253\340\346=\3522\237=\224h\013<\2236\302<H\344\217\275*\346U\275\277MO>\325&4\275H\027\257\273\034;\266=\006\251\272<\244\350\001\276_\203\377\275nN\231=\316?\361=4j\271\274\262\332\350\275\306\275C\275bD\367\275X\245\037\273\"!J=R6\211=u\334\315\275\016\205\r=m\3105\276\344\376\026=\333\3462=uF\370=MK\231\273\266\261\233\275W\344*>\244|\216\275:\026\t>\373\030\204=\211\304\'\2755\003\312\275\272\014A<J\313\353<\214\200\220\275r\212\264\274K\001\240\274\256\035\326\2743\270\215\275Z\263\003>n_\305\274\271w\007\276\243\331\256\275\253\350#\274\035\224\255\273\351\246K=(\311b>1\275\247=f\343\221\275\004+>=E\023,\276N\240#:9\001.\276WA\337=\304\022\232\273f\341G=,\200\235\274\014\311}\275^\0325>(\251<\275\341\000\237\2758\252\336\275\266\215\302<Q7\305\275\236\360\222=\312F6\275\377\345E<\006\345\023\276{\027\247\275\017r\277\271\2153\306=j\327g\275\324\226-=u5\005<\261\243\027=#E\354\275\030*\344\274\323\021\327\275+\340\331=\232\262\\=r\2404>g\217_=3\241\\\273\322\234\001\276\0245\201=\266\351\257=\375\274\250=\355\201c>\244\267F\2746\330\234=\310S(\275\311\203\347<j\374\211=7\324\344<\240H\256\274\002+?=\233cJ\275kA\t\276bp\3228||\244=\320a\206<\325\020\n\276\026\314\232:\223s\220\274\324Qh\275*\200n\275t\370\t=Pt\202<\303~\201=\314\033\266\274\0108\216=\205*j\275S\014/=\250\032\321\273u}\016<\336\235\222\275\336\262-<\371\001\003\276?\177\n>\'S)\274o\322\002\276\316G\007\276uX\270\274\035}\271\274\224\356\326<\3270\265\275\307~\315=\267z\262\275\362\314\326\274\374\221\200\273Q\311\005\275\3674&=\362\016\010>@\216\310=\224i\315\274#\207\307\275\340\321\355\273\357\232\001\272\234\221\026\275?ae=6\034\275\274\226\007O\275\357\272\013\274\322\242T=\t\255\366\274\003\376\036\275O\001\034>:O#=\266\273a\275\032\t\201<v\245\227;\270\210\035>I \342=\003\261\331=\310\302\246<TY\271\275\235,(>i@E\276\"\233\027\275\272\253$=}\326\035>\221\025\303\274\367X\032\276&\361\034\276z\277\037\275\227\005r\274\017\311\232=\306W\235<\002\3062>\275j\213=F\313\372=h$\211>\316\273Q\275x\212\177\275(\252:\275\300\366\000>(\275O=\006%\215=\235\325u=\241\r\017>6\310\005>\344T\246\274\313\323\366\275\337\351?=\013\205\356\275[<U==\013\035;\370\010\000=\343r\031<\242\002\245;t\033\002\2738\201\021>\361\003\363<\023Iv>,G}\275w\304\360\275\006\247)>=\003\214\276B\2307>r>\003\275<\205\261\275\301\335!\275\341\021\361\275-\312+\275\212\214\203<0\302\212\274q&\337\274\'\241Q<\000\206\200\275\013\236\321\275\272\023#=cl\314=\006\375\t=\332\234\200\275\033\264\212\275\233\005O=\177\204\350\275\314\362\307\274\005Z\013\275\305`\277\274\257\337E\275\313\206\231\275\372\356\227\275}\332\356\274-/D\274}\334\013\275&\265c\274\023D\t=\324\024\206\275\263\017\372<P\340\004\274\234v\265<\325\267\006\275\356\024i=w^\270=\001\277\272=\373k\215=\356;/\276\323\275\326=T\274\030\276\0222\212\274O\302Z\276\350\272\316=]\004\230=\337O\365<\203\234\003<\034\213i=e\201\005\276\335\203\035\276z\0050<\364o\247\274\300f\237=\037F\310\274\265\334\342\275\002n1=X\221,>\177\020\360\273\212_\327\273\001\243\275\275\231u\026\276\"W\265\275-\021\204=\317\000\343\275\365w\204\275Yrm\272\013\004\231=\236\367\022>\275\227\205=}z\227\275L8\254=\007Pd\273\256q\275=\010\375\022\275 E\345\275\344\3707=\266L\254\274\007F\005>I\022&\276\201X\321\2742/\024<\353&6\276w\255\342=em\022=kvG\275\0243\247\275$O\204\275K-\031<)\201\003\276\356V\023\275\242\204\022\276\214\351 \276\223\357\306=_{\340=\307{K\276|\321\003>\004\034\324=\007\336\235=\264\352\205\275G\016\234\275\021=\211=\034\021\222\274\347,\217\275\257\3227<s\305/\276`\026\235\271\216l\357<\201\232\000\274[\027g\275\253\234\022\276\r\312\267=N`2\276\270@\266\275\035`r<X\251\210\275v\344\000=\254[\005=P\302D=\371V\240\274\375\010\265\274\023]\313<\340\300&\276\300\320\257\274\370\214\343=\323\332\275\275\374\252N\275\021\360\264=\212\221\022\274\361\033\367=\235C\271=\262\036\017=+H\325\275]n#<\'\263\'\275\253\3142=\267G\204\275\225_[\2767t\273\275$l\311<\307o\346<\206\304q\275\270\354*>a\263*\2755\261\365<s\235\234\275\rwF<C\010\214\275\371;\364=\336B?\276\206\374\232\274\376\3461>*~\216\274\233\325,\276\247\266\241=~=\263\275=L,\275Jc\233\275\2155N\275\006\305E=\025\3219\275.\346\256\275\213\313\264\274%\320\317\275\004Q\206=\343fv\276\255\254\001>\254\020\334=2[K=\031[\000\274\\M.=|\366\003\276\374\375<=\264\213\373=c\240/\276RF\211\275p9\033\274\374\362\326\275[p\035\273\325\227c\274\016\310G\275\302\232\266<\235\037\360\275.$\023\276\221\264\307\274\t|\307\275J\036\010=\321\\ =\352\203\006\274~\244Y>\312q\317\274\200\304\032=\342\344\201<)\332E\2763i\022\276\017\220+\275\237\276\371\273\306\247\335\2737\214=\276a\207M;\274\007\364=K\353{<\263\220\230=V\250\031\2769\247\342\275\254\203^=\227g\265\275\004\213\230\273\325\370O\274\323\034\205\275\215y\354\274~\307\021\276c\007m=\331\3059=\361\233\314<h9\313=\373B\203\275_\2463=\021\005\024\275\r\206C\276\223<\277\273\267\027\372;\346\373\230=&\370\034=e\243\257=:tI=\350\301\307\2756\037\r>\206\242\000\276\273\273\324;\026S\356<\357T\217\275\275\332\'\275<k\236<\262\237\350\273\347H\253=\266\247Z\275\2324\263\275\310\027^>@\341\374=\257:\273<\322\264\340=%\245\353\275\375`p<]WP\273]@\317\275\224\364I=Cy\330;\214\223\241=\205\274\227\275\216y\340\275\371II\275\030\323v<j\364\206=\310\334J=|\026\374=He\372\274\306\r\362\275dP^\275\247\352\010\275\367\357\323\275\215-\221\274k2\224\274M\347\255:\354\376\225=\252\372\243<\327\273\026\276\311\177\323\274\003\264\302=\227\003r=gs\204;\313\007\027:\213\325\240\274\360z\267=\376\271\271=e\305\261\274\333\333\020\276/\026a\275Q=\327<\201\325\001\276\237\251\037\272\"\204\277=L\357\240\275\326w\321\274\377\257\225\275\\\3476=\0065\031\275!7\024> \203u\275y=l\275h\261\034>\304\271\013\276\373E\316\274\002C\n><,\225\274\321W\004=\332\336\251\274\363\361f>\306\323%>\336G\365\275x\"\306\274t\251\200\274\031\223-\275\206C\331\275\346\027\337\275\000\2310=q\t\037\276j\307_=\352\014\217=\200O\205\275EZ\321<\263?\005>\350\030\205<\036\ni=<[G\275\331$\321\274LE*>>E\220\275\334N\201\275\240\225f<4\003\265\274&\014\310=\327\3348\272\r\277]\274\317\234\357=\227\240\252\274\221\003\312<\330\210\262=\372\266^>\252\013\004\276\021\372\020\276AM\300\273\212\212\023;$P<\27553\023\275au\235=\212\332\213\275j\026\202\275*`4>M\207\244=J$\303=8\327\255<v!\030\275\207S\262=zB >\270\365@=y\t\371=\353\004\032\276\335\250\247<&\323\207=\306\333\226=\'\320\244;\2406\347\275\301\341s=\373\004\024:\241\362->\254H\237<aj\200\274\222\035\t\276y.h=\273\023\256\273\004!\205\275\033<\305<-\372\223=\201\002\024=<\327\377=\341\016:=%\213G>\231\274\201<#\312j\275\235<\025=@\274\277={v\212\275p\272d\272\332\206\257=\363}`=\004\243\034\27688\356=\204j\300<\207\206B\275^\226w=\t\254\244\275\363i\211=\307\034[\274\235d\377\275O\335\272\275\232S\262\274\254\265\270=E\357)\276\036\n\244\275\002\007~\275\344\010k\273\253\201!;\020\020C=\327\246\210\275\031Zj=\260\237\345=\031n\t\276a\227\310\274\326\321\034\276W\272\323<Jd\360=s\323\207\275\255T\335=h<,=0\353\231=,\272\201\273\367{%=r\317\n>\245\205a>\037\3447\276(\276\002\275ke\200\275\n\024\221\275\354\311T\275\236y\211:\343\250x=\231>\205\275\034\277\272;L\272\234=`9\223=\216MB\276\376\014P=.\353\016>;\340\334\275y\211\345\273\212\254\331\274\227\2279\276\247?\035\276\353\177G>\340\213\232=SeJ\275)\274B\275\2265\247\274J/\214\2758\243\037>\3274\322=D2\322\274\237\221$\275\032J\245\275}?\303<\364\313\334\275\371~\n>\244\\d\274a\'\272\275\034f\005\276\336\260\236=0h\370\274\r\006\251\275\223\221\337\274Y\261\022\275u\353\341\275\370\302\301==\230\210;\327\377%=G\324\257\274\205\374:\275vK`=\351\233\334=\315\367\207=\243\037<;+\030.\276\305\024P\275mT;=t\3140\275\245\340\010\275\362\350\307\275\377\374\t>\274\224\t=\341\310r=\243%4\275q\374\301=\212\031\210=\363\010\357\275=\031\377\275\273\201\"\275n\3524\2751\375@\275\242\366\005\275\310\010\\=+\031\020=\210\240\234\274byh\274\352K\316\274\272\354\352\274\270\014 >\236\016\307<\256\313_=\000\302\212\275\271\202\374\273^\265}={6*\276xU\014\276\234\271]=0-2\275\250\356-\276\346\010\314\2750\226q\275&L\340=\217^\274;\361\035\270=\247J\'=\235\235\207=\013\234:=\210\3239=\301;!>\255\233\032>\"\'3>Nv\002\275\214\004\312<\372 \227\2755\023\200=\205\254o\275\310\245+\276\017\334V=\261\231\204\275j\323\027=\226\215K\276\307\013\374\273\362<\356=(\rq\275\346\302\215=:\0043\275\204C&=\224(\027=\251dB\275\320\034\211\274\177r\243=5\007\327;\323+\017>u\211\207=(e\236;\306\205\255\275\361\272{<\374\006\\\276\333\326\366=\002\033\365\273\304\034\240<\037\262\324\274\241<\231<U\226\033=$/\221\275\254h\330<\224\225\221=.C\261=\364\272\226\275\204\001\275\275\0025C=\273re\273`\202\377=\253[S;g\275\216\275\275\355\341\275\215B.\276\244P\207=@H6\276\022\343\210\275\035r\017<\203}\253\275\235\024\312=\355y\364\274\006\377\332=\177\210\373=])\025</w\254=\005a\275\275\002\345\212=\363k\365\275\r^*<\037\212\316<e}\017>\270M\013\276\334yZ\275\354\252\205=\254r\205<-\323\017>\023\347c=\220D\231\275\211;\361\275\363\264\t=,qw\275\317\005\205=O\217\034\2767\r\260<\026\027y=\362\211\001>*\177{\275\363\333\216=3\241\357\275\207\346&\274\003g+>\177W\037\276I_ >\006\364X\273t`\254<3N\303\274FV%;\215v|<a\214o\274|Jk\275\236N\267=\243k!>\246V3;\256\342[=\245\374\272=\207_\263\274D\020\320\275\233\332#\276\264m\036\276\210\230D<\037\265%=\276\314H\274}\003\360:J\224{\275/\"\206\275\277P->\314\214\036\2742\000\020\276d\024\327=\340c\345\275:\252\300=L\266\254;\275\242\007>\304*w\275f]\211=\372\254\200=#\014l\2725+\337=\231F\241=\014\320q\275J\300\033\276\311\354@\275\373\251\310=\200\225\025\276\327X\264=,\363\234=p\306\244\275w\320\n\276\021:\002=z\255\226\275\031\305:\275\303iG<\250\216\320\275\010\334\3227\204\320#\276\316\037<\275\254\205\265\275\301F\246=\262\353\010\275 \257\253=X\272\360\274|\262!=*^X\274\231R\032\276\200\353\243<\200l\325\274\205+\203=W\325W\274\3411\300\275\275\033\r>:\347\244=&$^\276\375\274\357;.-\332=na\335\274d\362\361\275\303\316\333=\242\017\036=\347\264I\276\346\243K=5}\256\275\353\325\203\274\231\362\014\275\333\263\252>P\315\200\275W\203p\275\034\034\374=AZ$>\301>w\275(p\201<4\232\277<\214\0370=\326\331\\<KQk\275\274\025\334=>d\324\275\000\367\223\275\213\230\027>\330#m\274 \210(\275\230y\207;\226y\363=\325\013\311=\266\216\236\274\343\213\264=\233\221\351=(\213G=&\362<\275yf\016>\253\013M>\344\006$=\300\345\233=\213\235\232\27594A\274\212\355\306<\031\262\246\275\337\031\222<\240\312\327\275\003\255b\275&\224%\274\374\005\357=y\306\260=r\253\001>\326\037\301=e\356\305=R!\203\273\237\212\244==O\217=q\317\262=u\344:=\030K\234\274\200,\342=]\310\345<\027\303\243=\361Y\346\275Q_\030\275\251\331\255\275\323\037\223=\316\304M\275\360\335J\275\026\332\300<B\325\203;\357}X:\275_\237\275\254(\335\274@\353D=\375q\232\275U\245\221=\234g\352<\313\315P=\317U\336\273Ws\276=\240x\243\275\340,4\274\230\317\265;`\202\310\275\342?>\275\002\037E\276Y\314|=\r\221a\275u>\240\275\037\250\263=\374#^<\360\356\237=\034\342\">\333x\366\275\212\335\332=\332\233W=j\001\366\275f\241\235<\221\211\373<>\246\210\274up\321\272:\\\023>\200\367L=\202\016\000=\336\310\322\274\236\013l\275\310\351\360\274\353\247H=\212\262\346\274\243\000\212\275\221r\007>|K\021\276?\337\n\275%B\272\275\262X\232\275A\246\272=\020\352\230\275\342\033\214;2g\001=M\3359>\235k\241=\013V\271\273$8\r=*+@>\354\360J=\031yt=\302\302\003=\005\006/>R\226E\275Ps\222=\324\342K\275.\333^=\263\333d=7P\331=\257\010\246<\302\322*>+S\362<\376\350\r>\300\245\242\275Hi\276=C\353\263\275F\217\245\273\337\035\237<h\002R=\310\2309\275\300\232\301<\272{\356<\362BC\276N\241/=\223G\024\275\262%\025\274\031f\306\275\360h\263<\340{\256\274.0\036\276v\237\026\276\314Y\300\275\2425\307;3\352A\275!\323\026;\217\263x=\350o\261\274\334yx\275b\230\253\274\356\022v=8_\244\275\036\034\210\275\327\353\020>\355\211\267=Y\245\t>\244PO<Z\3614\275\003\006\316\275\232\\\243:2\352K>\327M\017\276\242\026\244\275\203\271\013\275\263t\251\274u\230z\275\342\224\322\275G\325\020\276\325\202\232\275\225v \2764^\014=\014\314\026>z\026\261\275\367\321\004\275\242\232D;\257e\303\275\026\3063\276K((>\266\236\026\276n\374\266\274\245l~=\026B \274p(\264\275\3747\310\274\247\257\256\272\230O\007\276}\257U<\331\207\374<\267Cg\275\354\253\355\274\305\020)\2755\216\036;s\357N\274\242\260\326<\266\004\324\275-\363\262<\315\356\367\275sB\007>cI\312\274%z\205\274|U==F\354K\275\027B3\275^\200\013;\305I\267=D>\275=\375\364\213=r1A\275\231\351@=\364\261\320<\351\372\326\275\320y\323=\270\344,\276x\355<>M\260$>\2253\344\275\021\3228=y\375.\275)6\260\275Q:k\273S\177\362=\027\256\270\274\256R\220=\355]\345\274\022\373\333\275\303\261\305<\004J#>\303u\346\274\376\3148>\235o\356\275CI\340<\267eC\276O\3360=r\273\r>-\000\210\274w3\014=\037\345p=\036%\233\275\334\201\301\274\323\203\312<!\375f=\272\216\222\275\340F\"\276X.\205\2756\313\271\273\320\033\003>\334\306d>\035QX\275\343D\n\275\352\305\203\275\200\311f=\t-Q>\255e\315\275\242\020+=)\205\315\275\265>\346\275a\321{\274\277o\026\276\026b0\274P\025p\275\036\374\217<\261NU\275\311\205\276\275\323\363\312=\313\361\213\275H/\270\275L\253?\274$\366\007\2764$\344<Vx\026=!\200\t\276*B\004>V$F\276\237\334\204\273\001\033(\275\302\227<;\'9o=\2565\030\275\356)\254=\003{y=&\356\243\275k-Z\276wi%\276\210\271\355=\360t\207=w\257\003\274\343\307\277<\035\'\205=\245\316\227\275D\244J=$\236\314=a\352\350\275\365\314A\274\237I\332\275\021\301\312\275\245\224/\275\2001\004\276\017\3321\276\321;\006>j\365g<wa\300<l\263\371\275\037\240\371=\207\\t\274\234/\257=\004\3772=[M\247\273\253T\314\274\372j\373\275\241Xx\272\004W_\275\013\025\244;\355\316\201=b\301+\275I\300,>\022\023\221\273\341\340\256\274T>\036>\305\002\016=\242\223\267=\034\335\005\275\274\256\026>\313\353J=\233\014\230\274\206X\231;\254\222\017<\244\374D<\330\242\236<\330\264\014=\021\342\306\275\3229\366<\352\250\244\275U@\341=\236\321\222=d\304\331=I~\201\274\312\372+=Q\272\002\276\n\3230>\370\244\346\275U\332\273<pIn:\344:\\=\037\350j=\216>\235;\231Q\203=\023\236\351=_\354\035\276(\272\254\275\250ng=\275\362\002\275\327\021W\275WW\n>\262\372\027\275\202\220\201\275\3116\215\275\215i\010\275\250\217\325\273\225\245\222\274zp\266\274\226\2658\276\373\307\310\2754\374\223=yT\233=g\350a\275\377x\271\274\261\004\334\275[\336Y\275\212\033\010=*Km\275\364\364\006<\033\025\215>\266\'\017\276\030\356\237=\316\210\230\275\347K\036\276\313o\337\273\233\\\264\273m\004l=\201c\'\275\263l\207\275lt\336\275A8\213=\r\003*\272\027\213\016\275\376\201\375<\016\356\344\275\354i\255\275wm\351=\210\252\226\274,\014\271\275#\335\246=\031\312~\275W\r\017>x$|\274\023ZT\2759\237\212=\224\312\236<\301\\#=\200\334Z\2766\213\216=f5\352<\272m\240\275\227f\027> \212,>\310A\016\275\247\346\024=r\365\303<km\270\274\347\233\217=\0243\267\274\002]\261\275\354\304\007\276-\220\340\274\022e\372<\211O$=\362\314$=\311\303\263\275\007\340\230=>\216s\275I\260\224\2752\311]<9W\350<r\373\r>\344j\235\275\353\220\031\275&&(>[@\330\274\336\335\254=\351\247(=\234p\361\2759\n\361\274X\344$>\367\001\200\274\376\023\233\275\214\263#>q\252\r>H@\276\275\303&j=@\033\31291\253\304<;iZ\2752\337\323\274\356\347\302=\t:G\276\234\270b<\006\t\371=_|\037>t\361\307\274\014\244\177>\014\177\021\276\335jm=\272?->,\366t=dw\003=\275C\353\274\022\302J\275\306\035&\275\237\246\251\274;\215\202=s\035\316=\336\023<<:0\222\274\237S\217\275\354d\265\274-\215(;#-\252\275#\303A\2751\230\241\274\013\203H\275\247\377\027=[\341k\275\346\215,>\230\022\t>\243\206\202\275\036~f\274\253\314\252\274\224\036\253\273\215N\367\273\254\271\366\2755\211\r\276z\326\201=\027\364\221=\244\271\353<\232\230@=\300\310\025\276A?\027;\321e\354=\311\376\213\275\227\217\212;7B\236\275\201\332\224\275\322_\201<{\365\024\275\034+\003\275\327\275\010\276d\314\363<\321\020@=J\177\t>\177\247\255=v>\250<\3340\000=\365\271\273=\363\273D\276\014\376)>j\335\321\275\325\370\365\275\353\257\013>\245\234\241\275\361}\271=o\366\325<\370\016\206=\271[%\2754\304\353<@^\353\275}\300\360\275l\345\352=[b\021<Gmd<\252*\227\274\323\323\317\274\265\007\304\274H&<\276\205\223\305\275\002\211\301=o\333\251\275\307\206x\275\233\026\240;\345y\356<\313yX\273\251\235\253\275-\375P\276\003\357\020\275*\236\271\272\261\016\300<+$\230\275C\274\023=\351R\"\275\203V\254=\002\353\360\275k\273\333=R(m>\232\347\234<\321\203.;f\233\201<\022w\260=\316\245+:\261/Z=\000d\006>)\307\253=\325z\023\276\2366\017\274}\326\215\275[eV=X{\007\272\022(e=u\333J>jQ\217=\310\321\225\275k\276m=\001\330\364\275\270$U<yA\"=\227y@=O\232!\276\260\372\212\274\225+\215<\264\303\246=1\314=<.\200y>\032\3558\275\020\213J\274\203\000\242=\264\260\031=\000\033\315=Gj\032=h*\204<*\333\205<qm\307=!\235\271=6\261\277=\013Bw\274c3m=\275\336\225=\034\036p<m}\246\274h\272\234=\260D*=T\347\365<\321\254\010>\206\220b=\207\024\311\275mn/\275\241S\373=\211\022U\275k\300\314<`C\301\275\310\010\241<\216\214\375=\231\304V\275x\353\346\274\346\371g=\340X\375\275U\314\002\2747\r\331<\211\027\223\276{@\254=\333\014\215<\245\320\036<\035\241\261\275rb\210=\251\2569=\340W=\276N9\204\274\274V\253=\005.\311\274\203\333\240\275\213~\262=x\221\200=\003\"\304<e:<\275w\362\345\2736\2242=|\263\021>\266\032\346:\247C\367=\310\361\007\275m\214\263=\000W\\<9\273\277<\202nH=\370\250\320=\311\246\275\275{p\240>JA\026>cf\321<\2175Q\272\203\371\032\275\310;\004\274\031\031S;y\225\251\275\272\352\252=\301%\372<\302\'>=$\005`\2747\327\377\275\353\2162\274\360\313\227=5\343\325\274#p\216\275\326\217q\276\221\215\260=4\240\244<\263\002\303\274\223{\031=\202\240\251=^Ku\275uxI\276rN\307=x\344\250<\373h\223<\212\001\372\273M\263P\2743\232\342\275\322\231\017\276\324d\356\275\251\231\255\275\243[\r\276\020`\362<\2436\327=\326\252\333\275\007O\306\275\2046\237\273\277\032\305=\324Z\350\274\035\371\036<\233\370\325=\034\"\300=\3242\232=\030\025C=p;\254\275\300}T<&G\304\275w\r3=\377\246\002\274\002\352K>@8\346\272\331\367\306=\177\263\272=\350\273\262\275M\022\360\275\312\026\226\274\310\334\325=\215_v\276\323\325\014<\230.\303<\220z\324\275w\262\225<\356\010\"\275\224\230,\275=`\371\274\363\330)>\036\271\023<\231\247p=\210\235I=L\225:\276\231\304\210;\355Z\346\275\202x\267=Q\257\'>\322\261\235\273D,2<$.\262\275Z\372\013\275\344x\321=\227\310c<\224D\221=\222\252C\274~\377\242\275\032\025\213\275CW\225<\270\206p=\211\313\202>\202\212\207\275K\267<=H\303\331\273P\2200=\023\210\354\274?cp=n\246\007\275\\j\346<D\220{<\227\307_<\232e\023= d/\275\352q\240\275t\363\271\274-\376\330=\375Z\265\274\025\227\226=\262\326\234\275\277K\267\274\325V.\276\340m2;\277\007\377<\177\324 \274\266\211\206\275z\026\323=\203L\'\275\177(\236:\240\313f=<\236\242=\311\374\000\276\352\333/>\304\263\251\275\220\260$=L\026;\275\204\325?:\373\005\332=!\303\020>\035\037E=\314\263\237\275\300\216$==\206\242=%\346\373=\034\253\263=r\352T\275\314\245\204<2BH\275k1\255\274\365\025\217<\303\216\216\274\256R\n\275\337\333D<i\0072=\226\250\033<\355\223i=\335\266\341<\277\213\322=:0Y<\264\370\376<_\243\200\274\217\013#\276\344m\013>\310\020\270:B\271\332=\334c\346\275\241\177\234=i\325\312\275\263Vp\275\265\321\315\275s!\037\276O\341\204\2734\360\365\273i\326\341<\365\362\"\275G\034\264\274\304\004\034\273^M\002>z\203\300=\272JI\275Y\210\027>\360\2520<\227\220\r>\274\n0=}\3519=U!\236=_\322\235=\177\030+>\266>\263=\366\250\214\275\223T\274=\022\275\233=\2758A\276\006=\236\274tV;\276\337\\\257=\334\277\262=\n\341\035\275\025\001\253\274\232\330\212\274s1\224\275(,\024\276]\010\20793\316\301=\232\360{\276\357\217\030=;\204p<~\010\343;^\376Q\275\232\r\033\2745w\244;V\3605\2756\363\313=a\003\275<Q\010\235;\272Z\371=\300\254\214=Z\320\036=\237\325\205=\002-\367\274\306\3117\275Y\213\330<\017\341\020>\317\325\262<Bh\354=Ax\022\276\253,)=\020\260\240\275\014\306\247=\031\r\275\274\366}\260=ft\233=\266\271\007=\2635f\275\347$\323=V\357\200>\317\320\034=\202\217(\275\207\236\245\275\311\252\t=\t\003\233=p\345\245\275\334\214\n<\007\231\351\275\310\025\230\274\347\325T\275o$\273=\304\221\202\276\264\225\001=\207\354t<\033\302\325=\242\333\005>\370\007/=\356\363\300\275\305\261\301=9\241P<\352S\032=a\311\254\273\t:\014>\232?1>"
      }
    }
  }
}
node {
  name: "lstm_1/recurrent_kernel"
  op: "VariableV2"
  attr {
    key: "container"
    value {
      s: ""
    }
  }
  attr {
    key: "dtype"
    value {
      type: DT_FLOAT
    }
  }
  attr {
    key: "shape"
    value {
      shape {
        dim {
          size: 32
        }
        dim {
          size: 128
        }
      }
    }
  }
  attr {
    key: "shared_name"
    value {
      s: ""
    }
  }
}
node {
  name: "lstm_1/recurrent_kernel/Assign"
  op: "Assign"
  input: "lstm_1/recurrent_kernel"
  input: "lstm_1/recurrent_kernel/initial_value"
  attr {
    key: "T"
    value {
      type: DT_FLOAT
    }
  }
  attr {
    key: "_class"
    value {
      list {
        s: "loc:@lstm_1/recurrent_kernel"
      }
    }
  }
  attr {
    key: "use_locking"
    value {
      b: true
    }
  }
  attr {
    key: "validate_shape"
    value {
      b: true
    }
  }
}
node {
  name: "lstm_1/recurrent_kernel/read"
  op: "Identity"
  input: "lstm_1/recurrent_kernel"
  attr {
    key: "T"
    value {
      type: DT_FLOAT
    }
  }
  attr {
    key: "_class"
    value {
      list {
        s: "loc:@lstm_1/recurrent_kernel"
      }
    }
  }
}
node {
  name: "lstm_1/Const"
  op: "Const"
  attr {
    key: "dtype"
    value {
      type: DT_FLOAT
    }
  }
  attr {
    key: "value"
    value {
      tensor {
        dtype: DT_FLOAT
        tensor_shape {
          dim {
            size: 32
          }
        }
        float_val: 0.0
      }
    }
  }
}
node {
  name: "lstm_1/Const_1"
  op: "Const"
  attr {
    key: "dtype"
    value {
      type: DT_FLOAT
    }
  }
  attr {
    key: "value"
    value {
      tensor {
        dtype: DT_FLOAT
        tensor_shape {
          dim {
            size: 32
          }
        }
        float_val: 1.0
      }
    }
  }
}
node {
  name: "lstm_1/Const_2"
  op: "Const"
  attr {
    key: "dtype"
    value {
      type: DT_FLOAT
    }
  }
  attr {
    key: "value"
    value {
      tensor {
        dtype: DT_FLOAT
        tensor_shape {
          dim {
            size: 64
          }
        }
        float_val: 0.0
      }
    }
  }
}
node {
  name: "lstm_1/concat/axis"
  op: "Const"
  attr {
    key: "dtype"
    value {
      type: DT_INT32
    }
  }
  attr {
    key: "value"
    value {
      tensor {
        dtype: DT_INT32
        tensor_shape {
        }
        int_val: 0
      }
    }
  }
}
node {
  name: "lstm_1/concat"
  op: "ConcatV2"
  input: "lstm_1/Const"
  input: "lstm_1/Const_1"
  input: "lstm_1/Const_2"
  input: "lstm_1/concat/axis"
  attr {
    key: "N"
    value {
      i: 3
    }
  }
  attr {
    key: "T"
    value {
      type: DT_FLOAT
    }
  }
  attr {
    key: "Tidx"
    value {
      type: DT_INT32
    }
  }
}
node {
  name: "lstm_1/bias"
  op: "VariableV2"
  attr {
    key: "container"
    value {
      s: ""
    }
  }
  attr {
    key: "dtype"
    value {
      type: DT_FLOAT
    }
  }
  attr {
    key: "shape"
    value {
      shape {
        dim {
          size: 128
        }
      }
    }
  }
  attr {
    key: "shared_name"
    value {
      s: ""
    }
  }
}
node {
  name: "lstm_1/bias/Assign"
  op: "Assign"
  input: "lstm_1/bias"
  input: "lstm_1/concat"
  attr {
    key: "T"
    value {
      type: DT_FLOAT
    }
  }
  attr {
    key: "_class"
    value {
      list {
        s: "loc:@lstm_1/bias"
      }
    }
  }
  attr {
    key: "use_locking"
    value {
      b: true
    }
  }
  attr {
    key: "validate_shape"
    value {
      b: true
    }
  }
}
node {
  name: "lstm_1/bias/read"
  op: "Identity"
  input: "lstm_1/bias"
  attr {
    key: "T"
    value {
      type: DT_FLOAT
    }
  }
  attr {
    key: "_class"
    value {
      list {
        s: "loc:@lstm_1/bias"
      }
    }
  }
}
node {
  name: "lstm_1/weight_regularizer_1/Square"
  op: "Square"
  input: "lstm_1/bias/read"
  attr {
    key: "T"
    value {
      type: DT_FLOAT
    }
  }
}
node {
  name: "lstm_1/weight_regularizer_1/mul/x"
  op: "Const"
  attr {
    key: "dtype"
    value {
      type: DT_FLOAT
    }
  }
  attr {
    key: "value"
    value {
      tensor {
        dtype: DT_FLOAT
        tensor_shape {
        }
        float_val: 1e-06
      }
    }
  }
}
node {
  name: "lstm_1/weight_regularizer_1/mul"
  op: "Mul"
  input: "lstm_1/weight_regularizer_1/mul/x"
  input: "lstm_1/weight_regularizer_1/Square"
  attr {
    key: "T"
    value {
      type: DT_FLOAT
    }
  }
}
node {
  name: "lstm_1/weight_regularizer_1/Const"
  op: "Const"
  attr {
    key: "dtype"
    value {
      type: DT_INT32
    }
  }
  attr {
    key: "value"
    value {
      tensor {
        dtype: DT_INT32
        tensor_shape {
          dim {
            size: 1
          }
        }
        int_val: 0
      }
    }
  }
}
node {
  name: "lstm_1/weight_regularizer_1/Sum"
  op: "Sum"
  input: "lstm_1/weight_regularizer_1/mul"
  input: "lstm_1/weight_regularizer_1/Const"
  attr {
    key: "T"
    value {
      type: DT_FLOAT
    }
  }
  attr {
    key: "Tidx"
    value {
      type: DT_INT32
    }
  }
  attr {
    key: "keep_dims"
    value {
      b: false
    }
  }
}
node {
  name: "lstm_1/weight_regularizer_1/add/x"
  op: "Const"
  attr {
    key: "dtype"
    value {
      type: DT_FLOAT
    }
  }
  attr {
    key: "value"
    value {
      tensor {
        dtype: DT_FLOAT
        tensor_shape {
        }
        float_val: 0.0
      }
    }
  }
}
node {
  name: "lstm_1/weight_regularizer_1/add"
  op: "Add"
  input: "lstm_1/weight_regularizer_1/add/x"
  input: "lstm_1/weight_regularizer_1/Sum"
  attr {
    key: "T"
    value {
      type: DT_FLOAT
    }
  }
}
node {
  name: "lstm_1/strided_slice/stack"
  op: "Const"
  attr {
    key: "dtype"
    value {
      type: DT_INT32
    }
  }
  attr {
    key: "value"
    value {
      tensor {
        dtype: DT_INT32
        tensor_shape {
          dim {
            size: 2
          }
        }
        tensor_content: "\000\000\000\000\000\000\000\000"
      }
    }
  }
}
node {
  name: "lstm_1/strided_slice/stack_1"
  op: "Const"
  attr {
    key: "dtype"
    value {
      type: DT_INT32
    }
  }
  attr {
    key: "value"
    value {
      tensor {
        dtype: DT_INT32
        tensor_shape {
          dim {
            size: 2
          }
        }
        tensor_content: "\000\000\000\000 \000\000\000"
      }
    }
  }
}
node {
  name: "lstm_1/strided_slice/stack_2"
  op: "Const"
  attr {
    key: "dtype"
    value {
      type: DT_INT32
    }
  }
  attr {
    key: "value"
    value {
      tensor {
        dtype: DT_INT32
        tensor_shape {
          dim {
            size: 2
          }
        }
        tensor_content: "\001\000\000\000\001\000\000\000"
      }
    }
  }
}
node {
  name: "lstm_1/strided_slice"
  op: "StridedSlice"
  input: "lstm_1/kernel/read"
  input: "lstm_1/strided_slice/stack"
  input: "lstm_1/strided_slice/stack_1"
  input: "lstm_1/strided_slice/stack_2"
  attr {
    key: "Index"
    value {
      type: DT_INT32
    }
  }
  attr {
    key: "T"
    value {
      type: DT_FLOAT
    }
  }
  attr {
    key: "begin_mask"
    value {
      i: 3
    }
  }
  attr {
    key: "ellipsis_mask"
    value {
      i: 0
    }
  }
  attr {
    key: "end_mask"
    value {
      i: 1
    }
  }
  attr {
    key: "new_axis_mask"
    value {
      i: 0
    }
  }
  attr {
    key: "shrink_axis_mask"
    value {
      i: 0
    }
  }
}
node {
  name: "lstm_1/strided_slice_1/stack"
  op: "Const"
  attr {
    key: "dtype"
    value {
      type: DT_INT32
    }
  }
  attr {
    key: "value"
    value {
      tensor {
        dtype: DT_INT32
        tensor_shape {
          dim {
            size: 2
          }
        }
        tensor_content: "\000\000\000\000 \000\000\000"
      }
    }
  }
}
node {
  name: "lstm_1/strided_slice_1/stack_1"
  op: "Const"
  attr {
    key: "dtype"
    value {
      type: DT_INT32
    }
  }
  attr {
    key: "value"
    value {
      tensor {
        dtype: DT_INT32
        tensor_shape {
          dim {
            size: 2
          }
        }
        tensor_content: "\000\000\000\000@\000\000\000"
      }
    }
  }
}
node {
  name: "lstm_1/strided_slice_1/stack_2"
  op: "Const"
  attr {
    key: "dtype"
    value {
      type: DT_INT32
    }
  }
  attr {
    key: "value"
    value {
      tensor {
        dtype: DT_INT32
        tensor_shape {
          dim {
            size: 2
          }
        }
        tensor_content: "\001\000\000\000\001\000\000\000"
      }
    }
  }
}
node {
  name: "lstm_1/strided_slice_1"
  op: "StridedSlice"
  input: "lstm_1/kernel/read"
  input: "lstm_1/strided_slice_1/stack"
  input: "lstm_1/strided_slice_1/stack_1"
  input: "lstm_1/strided_slice_1/stack_2"
  attr {
    key: "Index"
    value {
      type: DT_INT32
    }
  }
  attr {
    key: "T"
    value {
      type: DT_FLOAT
    }
  }
  attr {
    key: "begin_mask"
    value {
      i: 1
    }
  }
  attr {
    key: "ellipsis_mask"
    value {
      i: 0
    }
  }
  attr {
    key: "end_mask"
    value {
      i: 1
    }
  }
  attr {
    key: "new_axis_mask"
    value {
      i: 0
    }
  }
  attr {
    key: "shrink_axis_mask"
    value {
      i: 0
    }
  }
}
node {
  name: "lstm_1/strided_slice_2/stack"
  op: "Const"
  attr {
    key: "dtype"
    value {
      type: DT_INT32
    }
  }
  attr {
    key: "value"
    value {
      tensor {
        dtype: DT_INT32
        tensor_shape {
          dim {
            size: 2
          }
        }
        tensor_content: "\000\000\000\000@\000\000\000"
      }
    }
  }
}
node {
  name: "lstm_1/strided_slice_2/stack_1"
  op: "Const"
  attr {
    key: "dtype"
    value {
      type: DT_INT32
    }
  }
  attr {
    key: "value"
    value {
      tensor {
        dtype: DT_INT32
        tensor_shape {
          dim {
            size: 2
          }
        }
        tensor_content: "\000\000\000\000`\000\000\000"
      }
    }
  }
}
node {
  name: "lstm_1/strided_slice_2/stack_2"
  op: "Const"
  attr {
    key: "dtype"
    value {
      type: DT_INT32
    }
  }
  attr {
    key: "value"
    value {
      tensor {
        dtype: DT_INT32
        tensor_shape {
          dim {
            size: 2
          }
        }
        tensor_content: "\001\000\000\000\001\000\000\000"
      }
    }
  }
}
node {
  name: "lstm_1/strided_slice_2"
  op: "StridedSlice"
  input: "lstm_1/kernel/read"
  input: "lstm_1/strided_slice_2/stack"
  input: "lstm_1/strided_slice_2/stack_1"
  input: "lstm_1/strided_slice_2/stack_2"
  attr {
    key: "Index"
    value {
      type: DT_INT32
    }
  }
  attr {
    key: "T"
    value {
      type: DT_FLOAT
    }
  }
  attr {
    key: "begin_mask"
    value {
      i: 1
    }
  }
  attr {
    key: "ellipsis_mask"
    value {
      i: 0
    }
  }
  attr {
    key: "end_mask"
    value {
      i: 1
    }
  }
  attr {
    key: "new_axis_mask"
    value {
      i: 0
    }
  }
  attr {
    key: "shrink_axis_mask"
    value {
      i: 0
    }
  }
}
node {
  name: "lstm_1/strided_slice_3/stack"
  op: "Const"
  attr {
    key: "dtype"
    value {
      type: DT_INT32
    }
  }
  attr {
    key: "value"
    value {
      tensor {
        dtype: DT_INT32
        tensor_shape {
          dim {
            size: 2
          }
        }
        tensor_content: "\000\000\000\000`\000\000\000"
      }
    }
  }
}
node {
  name: "lstm_1/strided_slice_3/stack_1"
  op: "Const"
  attr {
    key: "dtype"
    value {
      type: DT_INT32
    }
  }
  attr {
    key: "value"
    value {
      tensor {
        dtype: DT_INT32
        tensor_shape {
          dim {
            size: 2
          }
        }
        tensor_content: "\000\000\000\000\000\000\000\000"
      }
    }
  }
}
node {
  name: "lstm_1/strided_slice_3/stack_2"
  op: "Const"
  attr {
    key: "dtype"
    value {
      type: DT_INT32
    }
  }
  attr {
    key: "value"
    value {
      tensor {
        dtype: DT_INT32
        tensor_shape {
          dim {
            size: 2
          }
        }
        tensor_content: "\001\000\000\000\001\000\000\000"
      }
    }
  }
}
node {
  name: "lstm_1/strided_slice_3"
  op: "StridedSlice"
  input: "lstm_1/kernel/read"
  input: "lstm_1/strided_slice_3/stack"
  input: "lstm_1/strided_slice_3/stack_1"
  input: "lstm_1/strided_slice_3/stack_2"
  attr {
    key: "Index"
    value {
      type: DT_INT32
    }
  }
  attr {
    key: "T"
    value {
      type: DT_FLOAT
    }
  }
  attr {
    key: "begin_mask"
    value {
      i: 1
    }
  }
  attr {
    key: "ellipsis_mask"
    value {
      i: 0
    }
  }
  attr {
    key: "end_mask"
    value {
      i: 3
    }
  }
  attr {
    key: "new_axis_mask"
    value {
      i: 0
    }
  }
  attr {
    key: "shrink_axis_mask"
    value {
      i: 0
    }
  }
}
node {
  name: "lstm_1/strided_slice_4/stack"
  op: "Const"
  attr {
    key: "dtype"
    value {
      type: DT_INT32
    }
  }
  attr {
    key: "value"
    value {
      tensor {
        dtype: DT_INT32
        tensor_shape {
          dim {
            size: 2
          }
        }
        tensor_content: "\000\000\000\000\000\000\000\000"
      }
    }
  }
}
node {
  name: "lstm_1/strided_slice_4/stack_1"
  op: "Const"
  attr {
    key: "dtype"
    value {
      type: DT_INT32
    }
  }
  attr {
    key: "value"
    value {
      tensor {
        dtype: DT_INT32
        tensor_shape {
          dim {
            size: 2
          }
        }
        tensor_content: "\000\000\000\000 \000\000\000"
      }
    }
  }
}
node {
  name: "lstm_1/strided_slice_4/stack_2"
  op: "Const"
  attr {
    key: "dtype"
    value {
      type: DT_INT32
    }
  }
  attr {
    key: "value"
    value {
      tensor {
        dtype: DT_INT32
        tensor_shape {
          dim {
            size: 2
          }
        }
        tensor_content: "\001\000\000\000\001\000\000\000"
      }
    }
  }
}
node {
  name: "lstm_1/strided_slice_4"
  op: "StridedSlice"
  input: "lstm_1/recurrent_kernel/read"
  input: "lstm_1/strided_slice_4/stack"
  input: "lstm_1/strided_slice_4/stack_1"
  input: "lstm_1/strided_slice_4/stack_2"
  attr {
    key: "Index"
    value {
      type: DT_INT32
    }
  }
  attr {
    key: "T"
    value {
      type: DT_FLOAT
    }
  }
  attr {
    key: "begin_mask"
    value {
      i: 3
    }
  }
  attr {
    key: "ellipsis_mask"
    value {
      i: 0
    }
  }
  attr {
    key: "end_mask"
    value {
      i: 1
    }
  }
  attr {
    key: "new_axis_mask"
    value {
      i: 0
    }
  }
  attr {
    key: "shrink_axis_mask"
    value {
      i: 0
    }
  }
}
node {
  name: "lstm_1/strided_slice_5/stack"
  op: "Const"
  attr {
    key: "dtype"
    value {
      type: DT_INT32
    }
  }
  attr {
    key: "value"
    value {
      tensor {
        dtype: DT_INT32
        tensor_shape {
          dim {
            size: 2
          }
        }
        tensor_content: "\000\000\000\000 \000\000\000"
      }
    }
  }
}
node {
  name: "lstm_1/strided_slice_5/stack_1"
  op: "Const"
  attr {
    key: "dtype"
    value {
      type: DT_INT32
    }
  }
  attr {
    key: "value"
    value {
      tensor {
        dtype: DT_INT32
        tensor_shape {
          dim {
            size: 2
          }
        }
        tensor_content: "\000\000\000\000@\000\000\000"
      }
    }
  }
}
node {
  name: "lstm_1/strided_slice_5/stack_2"
  op: "Const"
  attr {
    key: "dtype"
    value {
      type: DT_INT32
    }
  }
  attr {
    key: "value"
    value {
      tensor {
        dtype: DT_INT32
        tensor_shape {
          dim {
            size: 2
          }
        }
        tensor_content: "\001\000\000\000\001\000\000\000"
      }
    }
  }
}
node {
  name: "lstm_1/strided_slice_5"
  op: "StridedSlice"
  input: "lstm_1/recurrent_kernel/read"
  input: "lstm_1/strided_slice_5/stack"
  input: "lstm_1/strided_slice_5/stack_1"
  input: "lstm_1/strided_slice_5/stack_2"
  attr {
    key: "Index"
    value {
      type: DT_INT32
    }
  }
  attr {
    key: "T"
    value {
      type: DT_FLOAT
    }
  }
  attr {
    key: "begin_mask"
    value {
      i: 1
    }
  }
  attr {
    key: "ellipsis_mask"
    value {
      i: 0
    }
  }
  attr {
    key: "end_mask"
    value {
      i: 1
    }
  }
  attr {
    key: "new_axis_mask"
    value {
      i: 0
    }
  }
  attr {
    key: "shrink_axis_mask"
    value {
      i: 0
    }
  }
}
node {
  name: "lstm_1/strided_slice_6/stack"
  op: "Const"
  attr {
    key: "dtype"
    value {
      type: DT_INT32
    }
  }
  attr {
    key: "value"
    value {
      tensor {
        dtype: DT_INT32
        tensor_shape {
          dim {
            size: 2
          }
        }
        tensor_content: "\000\000\000\000@\000\000\000"
      }
    }
  }
}
node {
  name: "lstm_1/strided_slice_6/stack_1"
  op: "Const"
  attr {
    key: "dtype"
    value {
      type: DT_INT32
    }
  }
  attr {
    key: "value"
    value {
      tensor {
        dtype: DT_INT32
        tensor_shape {
          dim {
            size: 2
          }
        }
        tensor_content: "\000\000\000\000`\000\000\000"
      }
    }
  }
}
node {
  name: "lstm_1/strided_slice_6/stack_2"
  op: "Const"
  attr {
    key: "dtype"
    value {
      type: DT_INT32
    }
  }
  attr {
    key: "value"
    value {
      tensor {
        dtype: DT_INT32
        tensor_shape {
          dim {
            size: 2
          }
        }
        tensor_content: "\001\000\000\000\001\000\000\000"
      }
    }
  }
}
node {
  name: "lstm_1/strided_slice_6"
  op: "StridedSlice"
  input: "lstm_1/recurrent_kernel/read"
  input: "lstm_1/strided_slice_6/stack"
  input: "lstm_1/strided_slice_6/stack_1"
  input: "lstm_1/strided_slice_6/stack_2"
  attr {
    key: "Index"
    value {
      type: DT_INT32
    }
  }
  attr {
    key: "T"
    value {
      type: DT_FLOAT
    }
  }
  attr {
    key: "begin_mask"
    value {
      i: 1
    }
  }
  attr {
    key: "ellipsis_mask"
    value {
      i: 0
    }
  }
  attr {
    key: "end_mask"
    value {
      i: 1
    }
  }
  attr {
    key: "new_axis_mask"
    value {
      i: 0
    }
  }
  attr {
    key: "shrink_axis_mask"
    value {
      i: 0
    }
  }
}
node {
  name: "lstm_1/strided_slice_7/stack"
  op: "Const"
  attr {
    key: "dtype"
    value {
      type: DT_INT32
    }
  }
  attr {
    key: "value"
    value {
      tensor {
        dtype: DT_INT32
        tensor_shape {
          dim {
            size: 2
          }
        }
        tensor_content: "\000\000\000\000`\000\000\000"
      }
    }
  }
}
node {
  name: "lstm_1/strided_slice_7/stack_1"
  op: "Const"
  attr {
    key: "dtype"
    value {
      type: DT_INT32
    }
  }
  attr {
    key: "value"
    value {
      tensor {
        dtype: DT_INT32
        tensor_shape {
          dim {
            size: 2
          }
        }
        tensor_content: "\000\000\000\000\000\000\000\000"
      }
    }
  }
}
node {
  name: "lstm_1/strided_slice_7/stack_2"
  op: "Const"
  attr {
    key: "dtype"
    value {
      type: DT_INT32
    }
  }
  attr {
    key: "value"
    value {
      tensor {
        dtype: DT_INT32
        tensor_shape {
          dim {
            size: 2
          }
        }
        tensor_content: "\001\000\000\000\001\000\000\000"
      }
    }
  }
}
node {
  name: "lstm_1/strided_slice_7"
  op: "StridedSlice"
  input: "lstm_1/recurrent_kernel/read"
  input: "lstm_1/strided_slice_7/stack"
  input: "lstm_1/strided_slice_7/stack_1"
  input: "lstm_1/strided_slice_7/stack_2"
  attr {
    key: "Index"
    value {
      type: DT_INT32
    }
  }
  attr {
    key: "T"
    value {
      type: DT_FLOAT
    }
  }
  attr {
    key: "begin_mask"
    value {
      i: 1
    }
  }
  attr {
    key: "ellipsis_mask"
    value {
      i: 0
    }
  }
  attr {
    key: "end_mask"
    value {
      i: 3
    }
  }
  attr {
    key: "new_axis_mask"
    value {
      i: 0
    }
  }
  attr {
    key: "shrink_axis_mask"
    value {
      i: 0
    }
  }
}
node {
  name: "lstm_1/strided_slice_8/stack"
  op: "Const"
  attr {
    key: "dtype"
    value {
      type: DT_INT32
    }
  }
  attr {
    key: "value"
    value {
      tensor {
        dtype: DT_INT32
        tensor_shape {
          dim {
            size: 1
          }
        }
        int_val: 0
      }
    }
  }
}
node {
  name: "lstm_1/strided_slice_8/stack_1"
  op: "Const"
  attr {
    key: "dtype"
    value {
      type: DT_INT32
    }
  }
  attr {
    key: "value"
    value {
      tensor {
        dtype: DT_INT32
        tensor_shape {
          dim {
            size: 1
          }
        }
        int_val: 32
      }
    }
  }
}
node {
  name: "lstm_1/strided_slice_8/stack_2"
  op: "Const"
  attr {
    key: "dtype"
    value {
      type: DT_INT32
    }
  }
  attr {
    key: "value"
    value {
      tensor {
        dtype: DT_INT32
        tensor_shape {
          dim {
            size: 1
          }
        }
        int_val: 1
      }
    }
  }
}
node {
  name: "lstm_1/strided_slice_8"
  op: "StridedSlice"
  input: "lstm_1/bias/read"
  input: "lstm_1/strided_slice_8/stack"
  input: "lstm_1/strided_slice_8/stack_1"
  input: "lstm_1/strided_slice_8/stack_2"
  attr {
    key: "Index"
    value {
      type: DT_INT32
    }
  }
  attr {
    key: "T"
    value {
      type: DT_FLOAT
    }
  }
  attr {
    key: "begin_mask"
    value {
      i: 1
    }
  }
  attr {
    key: "ellipsis_mask"
    value {
      i: 0
    }
  }
  attr {
    key: "end_mask"
    value {
      i: 0
    }
  }
  attr {
    key: "new_axis_mask"
    value {
      i: 0
    }
  }
  attr {
    key: "shrink_axis_mask"
    value {
      i: 0
    }
  }
}
node {
  name: "lstm_1/strided_slice_9/stack"
  op: "Const"
  attr {
    key: "dtype"
    value {
      type: DT_INT32
    }
  }
  attr {
    key: "value"
    value {
      tensor {
        dtype: DT_INT32
        tensor_shape {
          dim {
            size: 1
          }
        }
        int_val: 32
      }
    }
  }
}
node {
  name: "lstm_1/strided_slice_9/stack_1"
  op: "Const"
  attr {
    key: "dtype"
    value {
      type: DT_INT32
    }
  }
  attr {
    key: "value"
    value {
      tensor {
        dtype: DT_INT32
        tensor_shape {
          dim {
            size: 1
          }
        }
        int_val: 64
      }
    }
  }
}
node {
  name: "lstm_1/strided_slice_9/stack_2"
  op: "Const"
  attr {
    key: "dtype"
    value {
      type: DT_INT32
    }
  }
  attr {
    key: "value"
    value {
      tensor {
        dtype: DT_INT32
        tensor_shape {
          dim {
            size: 1
          }
        }
        int_val: 1
      }
    }
  }
}
node {
  name: "lstm_1/strided_slice_9"
  op: "StridedSlice"
  input: "lstm_1/bias/read"
  input: "lstm_1/strided_slice_9/stack"
  input: "lstm_1/strided_slice_9/stack_1"
  input: "lstm_1/strided_slice_9/stack_2"
  attr {
    key: "Index"
    value {
      type: DT_INT32
    }
  }
  attr {
    key: "T"
    value {
      type: DT_FLOAT
    }
  }
  attr {
    key: "begin_mask"
    value {
      i: 0
    }
  }
  attr {
    key: "ellipsis_mask"
    value {
      i: 0
    }
  }
  attr {
    key: "end_mask"
    value {
      i: 0
    }
  }
  attr {
    key: "new_axis_mask"
    value {
      i: 0
    }
  }
  attr {
    key: "shrink_axis_mask"
    value {
      i: 0
    }
  }
}
node {
  name: "lstm_1/strided_slice_10/stack"
  op: "Const"
  attr {
    key: "dtype"
    value {
      type: DT_INT32
    }
  }
  attr {
    key: "value"
    value {
      tensor {
        dtype: DT_INT32
        tensor_shape {
          dim {
            size: 1
          }
        }
        int_val: 64
      }
    }
  }
}
node {
  name: "lstm_1/strided_slice_10/stack_1"
  op: "Const"
  attr {
    key: "dtype"
    value {
      type: DT_INT32
    }
  }
  attr {
    key: "value"
    value {
      tensor {
        dtype: DT_INT32
        tensor_shape {
          dim {
            size: 1
          }
        }
        int_val: 96
      }
    }
  }
}
node {
  name: "lstm_1/strided_slice_10/stack_2"
  op: "Const"
  attr {
    key: "dtype"
    value {
      type: DT_INT32
    }
  }
  attr {
    key: "value"
    value {
      tensor {
        dtype: DT_INT32
        tensor_shape {
          dim {
            size: 1
          }
        }
        int_val: 1
      }
    }
  }
}
node {
  name: "lstm_1/strided_slice_10"
  op: "StridedSlice"
  input: "lstm_1/bias/read"
  input: "lstm_1/strided_slice_10/stack"
  input: "lstm_1/strided_slice_10/stack_1"
  input: "lstm_1/strided_slice_10/stack_2"
  attr {
    key: "Index"
    value {
      type: DT_INT32
    }
  }
  attr {
    key: "T"
    value {
      type: DT_FLOAT
    }
  }
  attr {
    key: "begin_mask"
    value {
      i: 0
    }
  }
  attr {
    key: "ellipsis_mask"
    value {
      i: 0
    }
  }
  attr {
    key: "end_mask"
    value {
      i: 0
    }
  }
  attr {
    key: "new_axis_mask"
    value {
      i: 0
    }
  }
  attr {
    key: "shrink_axis_mask"
    value {
      i: 0
    }
  }
}
node {
  name: "lstm_1/strided_slice_11/stack"
  op: "Const"
  attr {
    key: "dtype"
    value {
      type: DT_INT32
    }
  }
  attr {
    key: "value"
    value {
      tensor {
        dtype: DT_INT32
        tensor_shape {
          dim {
            size: 1
          }
        }
        int_val: 96
      }
    }
  }
}
node {
  name: "lstm_1/strided_slice_11/stack_1"
  op: "Const"
  attr {
    key: "dtype"
    value {
      type: DT_INT32
    }
  }
  attr {
    key: "value"
    value {
      tensor {
        dtype: DT_INT32
        tensor_shape {
          dim {
            size: 1
          }
        }
        int_val: 0
      }
    }
  }
}
node {
  name: "lstm_1/strided_slice_11/stack_2"
  op: "Const"
  attr {
    key: "dtype"
    value {
      type: DT_INT32
    }
  }
  attr {
    key: "value"
    value {
      tensor {
        dtype: DT_INT32
        tensor_shape {
          dim {
            size: 1
          }
        }
        int_val: 1
      }
    }
  }
}
node {
  name: "lstm_1/strided_slice_11"
  op: "StridedSlice"
  input: "lstm_1/bias/read"
  input: "lstm_1/strided_slice_11/stack"
  input: "lstm_1/strided_slice_11/stack_1"
  input: "lstm_1/strided_slice_11/stack_2"
  attr {
    key: "Index"
    value {
      type: DT_INT32
    }
  }
  attr {
    key: "T"
    value {
      type: DT_FLOAT
    }
  }
  attr {
    key: "begin_mask"
    value {
      i: 0
    }
  }
  attr {
    key: "ellipsis_mask"
    value {
      i: 0
    }
  }
  attr {
    key: "end_mask"
    value {
      i: 1
    }
  }
  attr {
    key: "new_axis_mask"
    value {
      i: 0
    }
  }
  attr {
    key: "shrink_axis_mask"
    value {
      i: 0
    }
  }
}
node {
  name: "lstm_1/zeros_like"
  op: "ZerosLike"
  input: "lstm_1_input"
  attr {
    key: "T"
    value {
      type: DT_FLOAT
    }
  }
}
node {
  name: "lstm_1/Sum/reduction_indices"
  op: "Const"
  attr {
    key: "dtype"
    value {
      type: DT_INT32
    }
  }
  attr {
    key: "value"
    value {
      tensor {
        dtype: DT_INT32
        tensor_shape {
          dim {
            size: 2
          }
        }
        tensor_content: "\001\000\000\000\002\000\000\000"
      }
    }
  }
}
node {
  name: "lstm_1/Sum"
  op: "Sum"
  input: "lstm_1/zeros_like"
  input: "lstm_1/Sum/reduction_indices"
  attr {
    key: "T"
    value {
      type: DT_FLOAT
    }
  }
  attr {
    key: "Tidx"
    value {
      type: DT_INT32
    }
  }
  attr {
    key: "keep_dims"
    value {
      b: false
    }
  }
}
node {
  name: "lstm_1/ExpandDims/dim"
  op: "Const"
  attr {
    key: "dtype"
    value {
      type: DT_INT32
    }
  }
  attr {
    key: "value"
    value {
      tensor {
        dtype: DT_INT32
        tensor_shape {
        }
        int_val: -1
      }
    }
  }
}
node {
  name: "lstm_1/ExpandDims"
  op: "ExpandDims"
  input: "lstm_1/Sum"
  input: "lstm_1/ExpandDims/dim"
  attr {
    key: "T"
    value {
      type: DT_FLOAT
    }
  }
  attr {
    key: "Tdim"
    value {
      type: DT_INT32
    }
  }
}
node {
  name: "lstm_1/Tile/multiples"
  op: "Const"
  attr {
    key: "dtype"
    value {
      type: DT_INT32
    }
  }
  attr {
    key: "value"
    value {
      tensor {
        dtype: DT_INT32
        tensor_shape {
          dim {
            size: 2
          }
        }
        tensor_content: "\001\000\000\000 \000\000\000"
      }
    }
  }
}
node {
  name: "lstm_1/Tile"
  op: "Tile"
  input: "lstm_1/ExpandDims"
  input: "lstm_1/Tile/multiples"
  attr {
    key: "T"
    value {
      type: DT_FLOAT
    }
  }
  attr {
    key: "Tmultiples"
    value {
      type: DT_INT32
    }
  }
}
node {
  name: "lstm_1/Tile_1/multiples"
  op: "Const"
  attr {
    key: "dtype"
    value {
      type: DT_INT32
    }
  }
  attr {
    key: "value"
    value {
      tensor {
        dtype: DT_INT32
        tensor_shape {
          dim {
            size: 2
          }
        }
        tensor_content: "\001\000\000\000 \000\000\000"
      }
    }
  }
}
node {
  name: "lstm_1/Tile_1"
  op: "Tile"
  input: "lstm_1/ExpandDims"
  input: "lstm_1/Tile_1/multiples"
  attr {
    key: "T"
    value {
      type: DT_FLOAT
    }
  }
  attr {
    key: "Tmultiples"
    value {
      type: DT_INT32
    }
  }
}
node {
  name: "lstm_1/transpose/perm"
  op: "Const"
  attr {
    key: "dtype"
    value {
      type: DT_INT32
    }
  }
  attr {
    key: "value"
    value {
      tensor {
        dtype: DT_INT32
        tensor_shape {
          dim {
            size: 3
          }
        }
        tensor_content: "\001\000\000\000\000\000\000\000\002\000\000\000"
      }
    }
  }
}
node {
  name: "lstm_1/transpose"
  op: "Transpose"
  input: "lstm_1_input"
  input: "lstm_1/transpose/perm"
  attr {
    key: "T"
    value {
      type: DT_FLOAT
    }
  }
  attr {
    key: "Tperm"
    value {
      type: DT_INT32
    }
  }
}
node {
  name: "lstm_1/Shape"
  op: "Shape"
  input: "lstm_1/transpose"
  attr {
    key: "T"
    value {
      type: DT_FLOAT
    }
  }
  attr {
    key: "out_type"
    value {
      type: DT_INT32
    }
  }
}
node {
  name: "lstm_1/strided_slice_12/stack"
  op: "Const"
  attr {
    key: "dtype"
    value {
      type: DT_INT32
    }
  }
  attr {
    key: "value"
    value {
      tensor {
        dtype: DT_INT32
        tensor_shape {
          dim {
            size: 1
          }
        }
        int_val: 0
      }
    }
  }
}
node {
  name: "lstm_1/strided_slice_12/stack_1"
  op: "Const"
  attr {
    key: "dtype"
    value {
      type: DT_INT32
    }
  }
  attr {
    key: "value"
    value {
      tensor {
        dtype: DT_INT32
        tensor_shape {
          dim {
            size: 1
          }
        }
        int_val: 1
      }
    }
  }
}
node {
  name: "lstm_1/strided_slice_12/stack_2"
  op: "Const"
  attr {
    key: "dtype"
    value {
      type: DT_INT32
    }
  }
  attr {
    key: "value"
    value {
      tensor {
        dtype: DT_INT32
        tensor_shape {
          dim {
            size: 1
          }
        }
        int_val: 1
      }
    }
  }
}
node {
  name: "lstm_1/strided_slice_12"
  op: "StridedSlice"
  input: "lstm_1/Shape"
  input: "lstm_1/strided_slice_12/stack"
  input: "lstm_1/strided_slice_12/stack_1"
  input: "lstm_1/strided_slice_12/stack_2"
  attr {
    key: "Index"
    value {
      type: DT_INT32
    }
  }
  attr {
    key: "T"
    value {
      type: DT_INT32
    }
  }
  attr {
    key: "begin_mask"
    value {
      i: 0
    }
  }
  attr {
    key: "ellipsis_mask"
    value {
      i: 0
    }
  }
  attr {
    key: "end_mask"
    value {
      i: 0
    }
  }
  attr {
    key: "new_axis_mask"
    value {
      i: 0
    }
  }
  attr {
    key: "shrink_axis_mask"
    value {
      i: 1
    }
  }
}
node {
  name: "lstm_1/strided_slice_13/stack"
  op: "Const"
  attr {
    key: "dtype"
    value {
      type: DT_INT32
    }
  }
  attr {
    key: "value"
    value {
      tensor {
        dtype: DT_INT32
        tensor_shape {
          dim {
            size: 1
          }
        }
        int_val: 0
      }
    }
  }
}
node {
  name: "lstm_1/strided_slice_13/stack_1"
  op: "Const"
  attr {
    key: "dtype"
    value {
      type: DT_INT32
    }
  }
  attr {
    key: "value"
    value {
      tensor {
        dtype: DT_INT32
        tensor_shape {
          dim {
            size: 1
          }
        }
        int_val: 1
      }
    }
  }
}
node {
  name: "lstm_1/strided_slice_13/stack_2"
  op: "Const"
  attr {
    key: "dtype"
    value {
      type: DT_INT32
    }
  }
  attr {
    key: "value"
    value {
      tensor {
        dtype: DT_INT32
        tensor_shape {
          dim {
            size: 1
          }
        }
        int_val: 1
      }
    }
  }
}
node {
  name: "lstm_1/strided_slice_13"
  op: "StridedSlice"
  input: "lstm_1/transpose"
  input: "lstm_1/strided_slice_13/stack"
  input: "lstm_1/strided_slice_13/stack_1"
  input: "lstm_1/strided_slice_13/stack_2"
  attr {
    key: "Index"
    value {
      type: DT_INT32
    }
  }
  attr {
    key: "T"
    value {
      type: DT_FLOAT
    }
  }
  attr {
    key: "begin_mask"
    value {
      i: 0
    }
  }
  attr {
    key: "ellipsis_mask"
    value {
      i: 0
    }
  }
  attr {
    key: "end_mask"
    value {
      i: 0
    }
  }
  attr {
    key: "new_axis_mask"
    value {
      i: 0
    }
  }
  attr {
    key: "shrink_axis_mask"
    value {
      i: 1
    }
  }
}
node {
  name: "lstm_1/MatMul"
  op: "MatMul"
  input: "lstm_1/strided_slice_13"
  input: "lstm_1/strided_slice"
  attr {
    key: "T"
    value {
      type: DT_FLOAT
    }
  }
  attr {
    key: "transpose_a"
    value {
      b: false
    }
  }
  attr {
    key: "transpose_b"
    value {
      b: false
    }
  }
}
node {
  name: "lstm_1/MatMul_1"
  op: "MatMul"
  input: "lstm_1/strided_slice_13"
  input: "lstm_1/strided_slice_1"
  attr {
    key: "T"
    value {
      type: DT_FLOAT
    }
  }
  attr {
    key: "transpose_a"
    value {
      b: false
    }
  }
  attr {
    key: "transpose_b"
    value {
      b: false
    }
  }
}
node {
  name: "lstm_1/MatMul_2"
  op: "MatMul"
  input: "lstm_1/strided_slice_13"
  input: "lstm_1/strided_slice_2"
  attr {
    key: "T"
    value {
      type: DT_FLOAT
    }
  }
  attr {
    key: "transpose_a"
    value {
      b: false
    }
  }
  attr {
    key: "transpose_b"
    value {
      b: false
    }
  }
}
node {
  name: "lstm_1/MatMul_3"
  op: "MatMul"
  input: "lstm_1/strided_slice_13"
  input: "lstm_1/strided_slice_3"
  attr {
    key: "T"
    value {
      type: DT_FLOAT
    }
  }
  attr {
    key: "transpose_a"
    value {
      b: false
    }
  }
  attr {
    key: "transpose_b"
    value {
      b: false
    }
  }
}
node {
  name: "lstm_1/BiasAdd"
  op: "BiasAdd"
  input: "lstm_1/MatMul"
  input: "lstm_1/strided_slice_8"
  attr {
    key: "T"
    value {
      type: DT_FLOAT
    }
  }
  attr {
    key: "data_format"
    value {
      s: "NHWC"
    }
  }
}
node {
  name: "lstm_1/BiasAdd_1"
  op: "BiasAdd"
  input: "lstm_1/MatMul_1"
  input: "lstm_1/strided_slice_9"
  attr {
    key: "T"
    value {
      type: DT_FLOAT
    }
  }
  attr {
    key: "data_format"
    value {
      s: "NHWC"
    }
  }
}
node {
  name: "lstm_1/BiasAdd_2"
  op: "BiasAdd"
  input: "lstm_1/MatMul_2"
  input: "lstm_1/strided_slice_10"
  attr {
    key: "T"
    value {
      type: DT_FLOAT
    }
  }
  attr {
    key: "data_format"
    value {
      s: "NHWC"
    }
  }
}
node {
  name: "lstm_1/BiasAdd_3"
  op: "BiasAdd"
  input: "lstm_1/MatMul_3"
  input: "lstm_1/strided_slice_11"
  attr {
    key: "T"
    value {
      type: DT_FLOAT
    }
  }
  attr {
    key: "data_format"
    value {
      s: "NHWC"
    }
  }
}
node {
  name: "lstm_1/MatMul_4"
  op: "MatMul"
  input: "lstm_1/Tile"
  input: "lstm_1/strided_slice_4"
  attr {
    key: "T"
    value {
      type: DT_FLOAT
    }
  }
  attr {
    key: "transpose_a"
    value {
      b: false
    }
  }
  attr {
    key: "transpose_b"
    value {
      b: false
    }
  }
}
node {
  name: "lstm_1/add"
  op: "Add"
  input: "lstm_1/BiasAdd"
  input: "lstm_1/MatMul_4"
  attr {
    key: "T"
    value {
      type: DT_FLOAT
    }
  }
}
node {
  name: "lstm_1/mul/x"
  op: "Const"
  attr {
    key: "dtype"
    value {
      type: DT_FLOAT
    }
  }
  attr {
    key: "value"
    value {
      tensor {
        dtype: DT_FLOAT
        tensor_shape {
        }
        float_val: 0.2
      }
    }
  }
}
node {
  name: "lstm_1/mul"
  op: "Mul"
  input: "lstm_1/mul/x"
  input: "lstm_1/add"
  attr {
    key: "T"
    value {
      type: DT_FLOAT
    }
  }
}
node {
  name: "lstm_1/add_1/y"
  op: "Const"
  attr {
    key: "dtype"
    value {
      type: DT_FLOAT
    }
  }
  attr {
    key: "value"
    value {
      tensor {
        dtype: DT_FLOAT
        tensor_shape {
        }
        float_val: 0.5
      }
    }
  }
}
node {
  name: "lstm_1/add_1"
  op: "Add"
  input: "lstm_1/mul"
  input: "lstm_1/add_1/y"
  attr {
    key: "T"
    value {
      type: DT_FLOAT
    }
  }
}
node {
  name: "lstm_1/Const_3"
  op: "Const"
  attr {
    key: "dtype"
    value {
      type: DT_FLOAT
    }
  }
  attr {
    key: "value"
    value {
      tensor {
        dtype: DT_FLOAT
        tensor_shape {
        }
        float_val: 0.0
      }
    }
  }
}
node {
  name: "lstm_1/Const_4"
  op: "Const"
  attr {
    key: "dtype"
    value {
      type: DT_FLOAT
    }
  }
  attr {
    key: "value"
    value {
      tensor {
        dtype: DT_FLOAT
        tensor_shape {
        }
        float_val: 1.0
      }
    }
  }
}
node {
  name: "lstm_1/clip_by_value/Minimum"
  op: "Minimum"
  input: "lstm_1/add_1"
  input: "lstm_1/Const_4"
  attr {
    key: "T"
    value {
      type: DT_FLOAT
    }
  }
}
node {
  name: "lstm_1/clip_by_value"
  op: "Maximum"
  input: "lstm_1/clip_by_value/Minimum"
  input: "lstm_1/Const_3"
  attr {
    key: "T"
    value {
      type: DT_FLOAT
    }
  }
}
node {
  name: "lstm_1/MatMul_5"
  op: "MatMul"
  input: "lstm_1/Tile"
  input: "lstm_1/strided_slice_5"
  attr {
    key: "T"
    value {
      type: DT_FLOAT
    }
  }
  attr {
    key: "transpose_a"
    value {
      b: false
    }
  }
  attr {
    key: "transpose_b"
    value {
      b: false
    }
  }
}
node {
  name: "lstm_1/add_2"
  op: "Add"
  input: "lstm_1/BiasAdd_1"
  input: "lstm_1/MatMul_5"
  attr {
    key: "T"
    value {
      type: DT_FLOAT
    }
  }
}
node {
  name: "lstm_1/mul_1/x"
  op: "Const"
  attr {
    key: "dtype"
    value {
      type: DT_FLOAT
    }
  }
  attr {
    key: "value"
    value {
      tensor {
        dtype: DT_FLOAT
        tensor_shape {
        }
        float_val: 0.2
      }
    }
  }
}
node {
  name: "lstm_1/mul_1"
  op: "Mul"
  input: "lstm_1/mul_1/x"
  input: "lstm_1/add_2"
  attr {
    key: "T"
    value {
      type: DT_FLOAT
    }
  }
}
node {
  name: "lstm_1/add_3/y"
  op: "Const"
  attr {
    key: "dtype"
    value {
      type: DT_FLOAT
    }
  }
  attr {
    key: "value"
    value {
      tensor {
        dtype: DT_FLOAT
        tensor_shape {
        }
        float_val: 0.5
      }
    }
  }
}
node {
  name: "lstm_1/add_3"
  op: "Add"
  input: "lstm_1/mul_1"
  input: "lstm_1/add_3/y"
  attr {
    key: "T"
    value {
      type: DT_FLOAT
    }
  }
}
node {
  name: "lstm_1/Const_5"
  op: "Const"
  attr {
    key: "dtype"
    value {
      type: DT_FLOAT
    }
  }
  attr {
    key: "value"
    value {
      tensor {
        dtype: DT_FLOAT
        tensor_shape {
        }
        float_val: 0.0
      }
    }
  }
}
node {
  name: "lstm_1/Const_6"
  op: "Const"
  attr {
    key: "dtype"
    value {
      type: DT_FLOAT
    }
  }
  attr {
    key: "value"
    value {
      tensor {
        dtype: DT_FLOAT
        tensor_shape {
        }
        float_val: 1.0
      }
    }
  }
}
node {
  name: "lstm_1/clip_by_value_1/Minimum"
  op: "Minimum"
  input: "lstm_1/add_3"
  input: "lstm_1/Const_6"
  attr {
    key: "T"
    value {
      type: DT_FLOAT
    }
  }
}
node {
  name: "lstm_1/clip_by_value_1"
  op: "Maximum"
  input: "lstm_1/clip_by_value_1/Minimum"
  input: "lstm_1/Const_5"
  attr {
    key: "T"
    value {
      type: DT_FLOAT
    }
  }
}
node {
  name: "lstm_1/mul_2"
  op: "Mul"
  input: "lstm_1/clip_by_value_1"
  input: "lstm_1/Tile_1"
  attr {
    key: "T"
    value {
      type: DT_FLOAT
    }
  }
}
node {
  name: "lstm_1/MatMul_6"
  op: "MatMul"
  input: "lstm_1/Tile"
  input: "lstm_1/strided_slice_6"
  attr {
    key: "T"
    value {
      type: DT_FLOAT
    }
  }
  attr {
    key: "transpose_a"
    value {
      b: false
    }
  }
  attr {
    key: "transpose_b"
    value {
      b: false
    }
  }
}
node {
  name: "lstm_1/add_4"
  op: "Add"
  input: "lstm_1/BiasAdd_2"
  input: "lstm_1/MatMul_6"
  attr {
    key: "T"
    value {
      type: DT_FLOAT
    }
  }
}
node {
  name: "lstm_1/Tanh"
  op: "Tanh"
  input: "lstm_1/add_4"
  attr {
    key: "T"
    value {
      type: DT_FLOAT
    }
  }
}
node {
  name: "lstm_1/mul_3"
  op: "Mul"
  input: "lstm_1/clip_by_value"
  input: "lstm_1/Tanh"
  attr {
    key: "T"
    value {
      type: DT_FLOAT
    }
  }
}
node {
  name: "lstm_1/add_5"
  op: "Add"
  input: "lstm_1/mul_2"
  input: "lstm_1/mul_3"
  attr {
    key: "T"
    value {
      type: DT_FLOAT
    }
  }
}
node {
  name: "lstm_1/MatMul_7"
  op: "MatMul"
  input: "lstm_1/Tile"
  input: "lstm_1/strided_slice_7"
  attr {
    key: "T"
    value {
      type: DT_FLOAT
    }
  }
  attr {
    key: "transpose_a"
    value {
      b: false
    }
  }
  attr {
    key: "transpose_b"
    value {
      b: false
    }
  }
}
node {
  name: "lstm_1/add_6"
  op: "Add"
  input: "lstm_1/BiasAdd_3"
  input: "lstm_1/MatMul_7"
  attr {
    key: "T"
    value {
      type: DT_FLOAT
    }
  }
}
node {
  name: "lstm_1/mul_4/x"
  op: "Const"
  attr {
    key: "dtype"
    value {
      type: DT_FLOAT
    }
  }
  attr {
    key: "value"
    value {
      tensor {
        dtype: DT_FLOAT
        tensor_shape {
        }
        float_val: 0.2
      }
    }
  }
}
node {
  name: "lstm_1/mul_4"
  op: "Mul"
  input: "lstm_1/mul_4/x"
  input: "lstm_1/add_6"
  attr {
    key: "T"
    value {
      type: DT_FLOAT
    }
  }
}
node {
  name: "lstm_1/add_7/y"
  op: "Const"
  attr {
    key: "dtype"
    value {
      type: DT_FLOAT
    }
  }
  attr {
    key: "value"
    value {
      tensor {
        dtype: DT_FLOAT
        tensor_shape {
        }
        float_val: 0.5
      }
    }
  }
}
node {
  name: "lstm_1/add_7"
  op: "Add"
  input: "lstm_1/mul_4"
  input: "lstm_1/add_7/y"
  attr {
    key: "T"
    value {
      type: DT_FLOAT
    }
  }
}
node {
  name: "lstm_1/Const_7"
  op: "Const"
  attr {
    key: "dtype"
    value {
      type: DT_FLOAT
    }
  }
  attr {
    key: "value"
    value {
      tensor {
        dtype: DT_FLOAT
        tensor_shape {
        }
        float_val: 0.0
      }
    }
  }
}
node {
  name: "lstm_1/Const_8"
  op: "Const"
  attr {
    key: "dtype"
    value {
      type: DT_FLOAT
    }
  }
  attr {
    key: "value"
    value {
      tensor {
        dtype: DT_FLOAT
        tensor_shape {
        }
        float_val: 1.0
      }
    }
  }
}
node {
  name: "lstm_1/clip_by_value_2/Minimum"
  op: "Minimum"
  input: "lstm_1/add_7"
  input: "lstm_1/Const_8"
  attr {
    key: "T"
    value {
      type: DT_FLOAT
    }
  }
}
node {
  name: "lstm_1/clip_by_value_2"
  op: "Maximum"
  input: "lstm_1/clip_by_value_2/Minimum"
  input: "lstm_1/Const_7"
  attr {
    key: "T"
    value {
      type: DT_FLOAT
    }
  }
}
node {
  name: "lstm_1/Tanh_1"
  op: "Tanh"
  input: "lstm_1/add_5"
  attr {
    key: "T"
    value {
      type: DT_FLOAT
    }
  }
}
node {
  name: "lstm_1/mul_5"
  op: "Mul"
  input: "lstm_1/clip_by_value_2"
  input: "lstm_1/Tanh_1"
  attr {
    key: "T"
    value {
      type: DT_FLOAT
    }
  }
}
node {
  name: "lstm_1/TensorArray"
  op: "TensorArrayV3"
  input: "lstm_1/strided_slice_12"
  attr {
    key: "clear_after_read"
    value {
      b: true
    }
  }
  attr {
    key: "dtype"
    value {
      type: DT_FLOAT
    }
  }
  attr {
    key: "dynamic_size"
    value {
      b: false
    }
  }
  attr {
    key: "element_shape"
    value {
      shape {
        unknown_rank: true
      }
    }
  }
  attr {
    key: "identical_element_shapes"
    value {
      b: true
    }
  }
  attr {
    key: "tensor_array_name"
    value {
      s: "output_ta"
    }
  }
}
node {
  name: "lstm_1/TensorArray_1"
  op: "TensorArrayV3"
  input: "lstm_1/strided_slice_12"
  attr {
    key: "clear_after_read"
    value {
      b: true
    }
  }
  attr {
    key: "dtype"
    value {
      type: DT_FLOAT
    }
  }
  attr {
    key: "dynamic_size"
    value {
      b: false
    }
  }
  attr {
    key: "element_shape"
    value {
      shape {
        unknown_rank: true
      }
    }
  }
  attr {
    key: "identical_element_shapes"
    value {
      b: true
    }
  }
  attr {
    key: "tensor_array_name"
    value {
      s: "input_ta"
    }
  }
}
node {
  name: "lstm_1/TensorArrayUnstack/Shape"
  op: "Shape"
  input: "lstm_1/transpose"
  attr {
    key: "T"
    value {
      type: DT_FLOAT
    }
  }
  attr {
    key: "out_type"
    value {
      type: DT_INT32
    }
  }
}
node {
  name: "lstm_1/TensorArrayUnstack/strided_slice/stack"
  op: "Const"
  attr {
    key: "dtype"
    value {
      type: DT_INT32
    }
  }
  attr {
    key: "value"
    value {
      tensor {
        dtype: DT_INT32
        tensor_shape {
          dim {
            size: 1
          }
        }
        int_val: 0
      }
    }
  }
}
node {
  name: "lstm_1/TensorArrayUnstack/strided_slice/stack_1"
  op: "Const"
  attr {
    key: "dtype"
    value {
      type: DT_INT32
    }
  }
  attr {
    key: "value"
    value {
      tensor {
        dtype: DT_INT32
        tensor_shape {
          dim {
            size: 1
          }
        }
        int_val: 1
      }
    }
  }
}
node {
  name: "lstm_1/TensorArrayUnstack/strided_slice/stack_2"
  op: "Const"
  attr {
    key: "dtype"
    value {
      type: DT_INT32
    }
  }
  attr {
    key: "value"
    value {
      tensor {
        dtype: DT_INT32
        tensor_shape {
          dim {
            size: 1
          }
        }
        int_val: 1
      }
    }
  }
}
node {
  name: "lstm_1/TensorArrayUnstack/strided_slice"
  op: "StridedSlice"
  input: "lstm_1/TensorArrayUnstack/Shape"
  input: "lstm_1/TensorArrayUnstack/strided_slice/stack"
  input: "lstm_1/TensorArrayUnstack/strided_slice/stack_1"
  input: "lstm_1/TensorArrayUnstack/strided_slice/stack_2"
  attr {
    key: "Index"
    value {
      type: DT_INT32
    }
  }
  attr {
    key: "T"
    value {
      type: DT_INT32
    }
  }
  attr {
    key: "begin_mask"
    value {
      i: 0
    }
  }
  attr {
    key: "ellipsis_mask"
    value {
      i: 0
    }
  }
  attr {
    key: "end_mask"
    value {
      i: 0
    }
  }
  attr {
    key: "new_axis_mask"
    value {
      i: 0
    }
  }
  attr {
    key: "shrink_axis_mask"
    value {
      i: 1
    }
  }
}
node {
  name: "lstm_1/TensorArrayUnstack/range/start"
  op: "Const"
  attr {
    key: "dtype"
    value {
      type: DT_INT32
    }
  }
  attr {
    key: "value"
    value {
      tensor {
        dtype: DT_INT32
        tensor_shape {
        }
        int_val: 0
      }
    }
  }
}
node {
  name: "lstm_1/TensorArrayUnstack/range/delta"
  op: "Const"
  attr {
    key: "dtype"
    value {
      type: DT_INT32
    }
  }
  attr {
    key: "value"
    value {
      tensor {
        dtype: DT_INT32
        tensor_shape {
        }
        int_val: 1
      }
    }
  }
}
node {
  name: "lstm_1/TensorArrayUnstack/range"
  op: "Range"
  input: "lstm_1/TensorArrayUnstack/range/start"
  input: "lstm_1/TensorArrayUnstack/strided_slice"
  input: "lstm_1/TensorArrayUnstack/range/delta"
  attr {
    key: "Tidx"
    value {
      type: DT_INT32
    }
  }
}
node {
  name: "lstm_1/TensorArrayUnstack/TensorArrayScatter/TensorArrayScatterV3"
  op: "TensorArrayScatterV3"
  input: "lstm_1/TensorArray_1"
  input: "lstm_1/TensorArrayUnstack/range"
  input: "lstm_1/transpose"
  input: "lstm_1/TensorArray_1:1"
  attr {
    key: "T"
    value {
      type: DT_FLOAT
    }
  }
  attr {
    key: "_class"
    value {
      list {
        s: "loc:@lstm_1/transpose"
      }
    }
  }
}
node {
  name: "lstm_1/time"
  op: "Const"
  attr {
    key: "dtype"
    value {
      type: DT_INT32
    }
  }
  attr {
    key: "value"
    value {
      tensor {
        dtype: DT_INT32
        tensor_shape {
        }
        int_val: 0
      }
    }
  }
}
node {
  name: "lstm_1/while/maximum_iterations"
  op: "Const"
  attr {
    key: "dtype"
    value {
